{
  "version": "1.0",
  "truncation": null,
  "padding": null,
  "added_tokens": [
    {
      "id": 0,
      "content": "<pad>",
      "single_word": false,
      "lstrip": false,
      "rstrip": false,
      "normalized": false,
      "special": true
    },
    {
      "id": 1,
      "content": "<s>",
      "single_word": false,
      "lstrip": false,
      "rstrip": false,
      "normalized": false,
      "special": true
    },
    {
      "id": 2,
      "content": "</s>",
      "single_word": false,
      "lstrip": false,
      "rstrip": false,
      "normalized": false,
      "special": true
    },
    {
      "id": 3,
      "content": "<unk>",
      "single_word": false,
      "lstrip": false,
      "rstrip": false,
      "normalized": false,
      "special": true
    },
    {
      "id": 4,
      "content": "<mask>",
      "single_word": false,
      "lstrip": false,
      "rstrip": false,
      "normalized": false,
      "special": true
    }
  ],
  "normalizer": null,
  "pre_tokenizer": {
    "type": "ByteLevel",
    "add_prefix_space": false,
    "trim_offsets": true,
    "use_regex": true
  },
  "post_processor": {
    "type": "ByteLevel",
    "add_prefix_space": true,
    "trim_offsets": false,
    "use_regex": true
  },
  "decoder": {
    "type": "ByteLevel",
    "add_prefix_space": true,
    "trim_offsets": true,
    "use_regex": true
  },
  "model": {
    "type": "BPE",
    "dropout": null,
    "unk_token": null,
    "continuing_subword_prefix": null,
    "end_of_word_suffix": null,
    "fuse_unk": false,
    "byte_fallback": false,
    "ignore_merges": false,
    "vocab": {
      "<pad>": 0,
      "<s>": 1,
      "</s>": 2,
      "<unk>": 3,
      "<mask>": 4,
      "!": 5,
      "\"": 6,
      "#": 7,
      "$": 8,
      "%": 9,
      "&": 10,
      "'": 11,
      "(": 12,
      ")": 13,
      "*": 14,
      "+": 15,
      ",": 16,
      "-": 17,
      ".": 18,
      "/": 19,
      "0": 20,
      "1": 21,
      "2": 22,
      "3": 23,
      "4": 24,
      "5": 25,
      "6": 26,
      "7": 27,
      "8": 28,
      "9": 29,
      ":": 30,
      ";": 31,
      "<": 32,
      "=": 33,
      ">": 34,
      "?": 35,
      "@": 36,
      "A": 37,
      "B": 38,
      "C": 39,
      "D": 40,
      "E": 41,
      "F": 42,
      "G": 43,
      "H": 44,
      "I": 45,
      "J": 46,
      "K": 47,
      "L": 48,
      "M": 49,
      "N": 50,
      "O": 51,
      "P": 52,
      "Q": 53,
      "R": 54,
      "S": 55,
      "T": 56,
      "U": 57,
      "V": 58,
      "W": 59,
      "X": 60,
      "Y": 61,
      "Z": 62,
      "[": 63,
      "\\": 64,
      "]": 65,
      "^": 66,
      "_": 67,
      "`": 68,
      "a": 69,
      "b": 70,
      "c": 71,
      "d": 72,
      "e": 73,
      "f": 74,
      "g": 75,
      "h": 76,
      "i": 77,
      "j": 78,
      "k": 79,
      "l": 80,
      "m": 81,
      "n": 82,
      "o": 83,
      "p": 84,
      "q": 85,
      "r": 86,
      "s": 87,
      "t": 88,
      "u": 89,
      "v": 90,
      "w": 91,
      "x": 92,
      "y": 93,
      "z": 94,
      "{": 95,
      "|": 96,
      "}": 97,
      "~": 98,
      "¡": 99,
      "¢": 100,
      "£": 101,
      "¤": 102,
      "¥": 103,
      "¦": 104,
      "§": 105,
      "¨": 106,
      "©": 107,
      "ª": 108,
      "«": 109,
      "¬": 110,
      "®": 111,
      "¯": 112,
      "°": 113,
      "±": 114,
      "²": 115,
      "³": 116,
      "´": 117,
      "µ": 118,
      "¶": 119,
      "·": 120,
      "¸": 121,
      "¹": 122,
      "º": 123,
      "»": 124,
      "¼": 125,
      "½": 126,
      "¾": 127,
      "¿": 128,
      "À": 129,
      "Á": 130,
      "Â": 131,
      "Ã": 132,
      "Ä": 133,
      "Å": 134,
      "Æ": 135,
      "Ç": 136,
      "È": 137,
      "É": 138,
      "Ê": 139,
      "Ë": 140,
      "Ì": 141,
      "Í": 142,
      "Î": 143,
      "Ï": 144,
      "Ð": 145,
      "Ñ": 146,
      "Ò": 147,
      "Ó": 148,
      "Ô": 149,
      "Õ": 150,
      "Ö": 151,
      "×": 152,
      "Ø": 153,
      "Ù": 154,
      "Ú": 155,
      "Û": 156,
      "Ü": 157,
      "Ý": 158,
      "Þ": 159,
      "ß": 160,
      "à": 161,
      "á": 162,
      "â": 163,
      "ã": 164,
      "ä": 165,
      "å": 166,
      "æ": 167,
      "ç": 168,
      "è": 169,
      "é": 170,
      "ê": 171,
      "ë": 172,
      "ì": 173,
      "í": 174,
      "î": 175,
      "ï": 176,
      "ð": 177,
      "ñ": 178,
      "ò": 179,
      "ó": 180,
      "ô": 181,
      "õ": 182,
      "ö": 183,
      "÷": 184,
      "ø": 185,
      "ù": 186,
      "ú": 187,
      "û": 188,
      "ü": 189,
      "ý": 190,
      "þ": 191,
      "ÿ": 192,
      "Ā": 193,
      "ā": 194,
      "Ă": 195,
      "ă": 196,
      "Ą": 197,
      "ą": 198,
      "Ć": 199,
      "ć": 200,
      "Ĉ": 201,
      "ĉ": 202,
      "Ċ": 203,
      "ċ": 204,
      "Č": 205,
      "č": 206,
      "Ď": 207,
      "ď": 208,
      "Đ": 209,
      "đ": 210,
      "Ē": 211,
      "ē": 212,
      "Ĕ": 213,
      "ĕ": 214,
      "Ė": 215,
      "ė": 216,
      "Ę": 217,
      "ę": 218,
      "Ě": 219,
      "ě": 220,
      "Ĝ": 221,
      "ĝ": 222,
      "Ğ": 223,
      "ğ": 224,
      "Ġ": 225,
      "ġ": 226,
      "Ģ": 227,
      "ģ": 228,
      "Ĥ": 229,
      "ĥ": 230,
      "Ħ": 231,
      "ħ": 232,
      "Ĩ": 233,
      "ĩ": 234,
      "Ī": 235,
      "ī": 236,
      "Ĭ": 237,
      "ĭ": 238,
      "Į": 239,
      "į": 240,
      "İ": 241,
      "ı": 242,
      "Ĳ": 243,
      "ĳ": 244,
      "Ĵ": 245,
      "ĵ": 246,
      "Ķ": 247,
      "ķ": 248,
      "ĸ": 249,
      "Ĺ": 250,
      "ĺ": 251,
      "Ļ": 252,
      "ļ": 253,
      "Ľ": 254,
      "ľ": 255,
      "Ŀ": 256,
      "ŀ": 257,
      "Ł": 258,
      "ł": 259,
      "Ń": 260,
      "Äĥ": 261,
      "Ġa": 262,
      "Ġd": 263,
      "re": 264,
      "Ġc": 265,
      "Ġp": 266,
      "in": 267,
      "te": 268,
      "Ġs": 269,
      "Ġde": 270,
      "ri": 271,
      "ul": 272,
      "Ġ.": 273,
      "or": 274,
      "le": 275,
      "an": 276,
      "ĠÃ": 277,
      "ĠÃ®": 278,
      "at": 279,
      "Ġm": 280,
      "en": 281,
      "ĠÃ®n": 282,
      "st": 283,
      "un": 284,
      "la": 285,
      "on": 286,
      "Ġf": 287,
      "are": 288,
      "ar": 289,
      "ic": 290,
      "it": 291,
      "ÈĽ": 292,
      "Ġe": 293,
      "ÈĻ": 294,
      "ie": 295,
      "Å£": 296,
      "ÅŁ": 297,
      "Ġv": 298,
      "Ġn": 299,
      "ce": 300,
      "ia": 301,
      "ra": 302,
      "Ġ-": 303,
      "ru": 304,
      "ro": 305,
      "Ġo": 306,
      "ent": 307,
      "Ġla": 308,
      "cu": 309,
      "ti": 310,
      "ii": 311,
      "ate": 312,
      "Ġin": 313,
      "Ã¢": 314,
      "ea": 315,
      "Ġl": 316,
      "Ġt": 317,
      "er": 318,
      "Ġcu": 319,
      "al": 320,
      "ĠÅŁ": 321,
      "ÈĻi": 322,
      "om": 323,
      "ui": 324,
      "Ġdin": 325,
      "Ġun": 326,
      "Ġre": 327,
      "ĠC": 328,
      "il": 329,
      "ĠÅŁi": 330,
      "ĠsÄĥ": 331,
      "ste": 332,
      "ai": 333,
      "Ġpe": 334,
      "im": 335,
      "ĠD": 336,
      "ĠP": 337,
      "ĠÈĻi": 338,
      "Ġcare": 339,
      "ĠM": 340,
      "ĠcÄĥ": 341,
      "Ġse": 342,
      "us": 343,
      "ĠA": 344,
      "Ġce": 345,
      "Ġau": 346,
      "entru": 347,
      "ĠS": 348,
      "Ġcon": 349,
      "âĢ": 350,
      "lor": 351,
      "um": 352,
      "Ã¢n": 353,
      "Ġpentru": 354,
      "ĠI": 355,
      "de": 356,
      "Ġb": 357,
      "Ġpro": 358,
      "pe": 359,
      "ol": 360,
      "ului": 361,
      "tÄĥ": 362,
      "ur": 363,
      "Ġca": 364,
      "ĠB": 365,
      "Ġpre": 366,
      "he": 367,
      "Ġan": 368,
      "scu": 369,
      "Ġmai": 370,
      "Ġ2": 371,
      "Ġace": 372,
      "ct": 373,
      "ĠR": 374,
      "Ġfo": 375,
      "iz": 376,
      "to": 377,
      "Ġ1": 378,
      "uri": 379,
      "ÈĽi": 380,
      "cÄĥ": 381,
      "Ġal": 382,
      "ad": 383,
      "Ġg": 384,
      "ĠG": 385,
      "ist": 386,
      "area": 387,
      "ta": 388,
      "Å£i": 389,
      "ĠâĢ": 390,
      "Ġnu": 391,
      "as": 392,
      "ci": 393,
      "rii": 394,
      "Ġeste": 395,
      "am": 396,
      "rÄĥ": 397,
      "Ġfost": 398,
      "Ġfi": 399,
      "ut": 400,
      "atÄĥ": 401,
      "rea": 402,
      "rie": 403,
      "ana": 404,
      "ot": 405,
      "tre": 406,
      "Ġdo": 407,
      "io": 408,
      "ine": 409,
      "Ġi": 410,
      "ve": 411,
      "ĠT": 412,
      "oc": 413,
      "pa": 414,
      "Ġva": 415,
      "Ġsa": 416,
      "fe": 417,
      "org": 418,
      "Ġle": 419,
      "ĠN": 420,
      "Ġex": 421,
      "Ġcom": 422,
      "is": 423,
      "Ġpri": 424,
      "Ġsp": 425,
      "mp": 426,
      "Ġ20": 427,
      "Ġfa": 428,
      "zÄĥ": 429,
      "ici": 430,
      "Ġme": 431,
      "Ġpar": 432,
      "me": 433,
      "ĠV": 434,
      "ih": 435,
      "ĠE": 436,
      "Ġno": 437,
      "bu": 438,
      "Ġac": 439,
      "si": 440,
      "up": 441,
      "ÈĻti": 442,
      "se": 443,
      "Ġ)": 444,
      "Ġst": 445,
      "Ġte": 446,
      "Ġar": 447,
      "Ġ(": 448,
      "zi": 449,
      "Ġap": 450,
      "ica": 451,
      "ĠPo": 452,
      "Ġpu": 453,
      "ĠL": 454,
      "ĠMih": 455,
      "di": 456,
      "ona": 457,
      "Ġpo": 458,
      "Ġne": 459,
      "Ġ:": 460,
      "Ġsi": 461,
      "sc": 462,
      "Ġ\"": 463,
      "Ġtre": 464,
      "ran": 465,
      "umit": 466,
      "Ġj": 467,
      "rin": 468,
      "Ġacest": 469,
      "ge": 470,
      "Ã¢nd": 471,
      "ÈĽii": 472,
      "va": 473,
      "con": 474,
      "ori": 475,
      "orm": 476,
      "ari": 477,
      "Ġam": 478,
      "inu": 479,
      "Å£ii": 480,
      "Ġvor": 481,
      "tan": 482,
      "Ġmul": 483,
      "Ġim": 484,
      "ina": 485,
      "ĠâĢŀ": 486,
      "00": 487,
      "adu": 488,
      "Ġinte": 489,
      "one": 490,
      "uc": 491,
      "ile": 492,
      "fic": 493,
      "lie": 494,
      "pre": 495,
      "bil": 496,
      "une": 497,
      "unt": 498,
      "Ġsc": 499,
      "ite": 500,
      "rat": 501,
      "heorg": 502,
      "heorghe": 503,
      "ast": 504,
      "Ġdec": 505,
      "ÈĽa": 506,
      "Ġ3": 507,
      "Ġco": 508,
      "ice": 509,
      "ĠRadu": 510,
      "rul": 511,
      "hi": 512,
      "itate": 513,
      "ĠDumit": 514,
      "Ġ201": 515,
      "ĠMihai": 516,
      "ial": 517,
      "İn": 518,
      "Ġav": 519,
      "ĠGheorghe": 520,
      "âĢĿ": 521,
      "ane": 522,
      "ilor": 523,
      "iv": 524,
      "na": 525,
      "Ġale": 526,
      "brie": 527,
      "Ġcre": 528,
      "ĠÃİn": 529,
      "Ġsunt": 530,
      "lu": 531,
      "ze": 532,
      "icÄĥ": 533,
      "men": 534,
      "ura": 535,
      "ĠIlie": 536,
      "tea": 537,
      "Ġsu": 538,
      "Ġad": 539,
      "Ġmo": 540,
      "itÄĥ": 541,
      "Ġur": 542,
      "uro": 543,
      "pt": 544,
      "por": 545,
      "Ġprim": 546,
      "anu": 547,
      "ĠF": 548,
      "Ġdi": 549,
      "nd": 550,
      "Ġprin": 551,
      "Ġcont": 552,
      "og": 553,
      "sti": 554,
      "ĠO": 555,
      "ora": 556,
      "Ġro": 557,
      "Ġper": 558,
      "acÄĥ": 559,
      "Å£ie": 560,
      "Å£Äĥ": 561,
      "ele": 562,
      "ĠÃ®nt": 563,
      "ara": 564,
      "ĠGa": 565,
      "lad": 566,
      "din": 567,
      "cas": 568,
      "onescu": 569,
      "rad": 570,
      "stan": 571,
      "toica": 572,
      "tiv": 573,
      "rescu": 574,
      "ÈĽie": 575,
      "arin": 576,
      "bl": 577,
      "sÄĥ": 578,
      "iob": 579,
      "and": 580,
      "Ġiar": 581,
      "iobanu": 582,
      "tele": 583,
      "ĠIonescu": 584,
      "ĠVlad": 585,
      "form": 586,
      "ĠStan": 587,
      "uscas": 588,
      "adea": 589,
      "ind": 590,
      "ico": 591,
      "iacon": 592,
      "Ġurm": 593,
      "iaconu": 594,
      "cum": 595,
      "Ġaf": 596,
      "ĠStoica": 597,
      "arbu": 598,
      "ib": 599,
      "ale": 600,
      "ĠDumitrescu": 601,
      "oma": 602,
      "eazÄĥ": 603,
      "Ġpl": 604,
      "eni": 605,
      "tate": 606,
      "istor": 607,
      "alÄĥ": 608,
      "orul": 609,
      "Ġcomp": 610,
      "ĠCiobanu": 611,
      "ÈĽÄĥ": 612,
      "ĠMarin": 613,
      "pescu": 614,
      "Ġ4": 615,
      "Ġloc": 616,
      "Ã¢t": 617,
      "Ġani": 618,
      "ĠPuscas": 619,
      "atei": 620,
      "ĠDiaconu": 621,
      "ĠBadea": 622,
      "ÈĻo": 623,
      "ĠCon": 624,
      "el": 625,
      "Ġat": 626,
      "Ġdar": 627,
      "ĠBarbu": 628,
      "sa": 629,
      "Ġsau": 630,
      "Ġto": 631,
      "Ġast": 632,
      "ĠNistor": 633,
      "upÄĥ": 634,
      "usu": 635,
      "ĠDinu": 636,
      "Ġ6": 637,
      "Ġ5": 638,
      "za": 639,
      "ĠPopescu": 640,
      "ĠPopa": 641,
      "urile": 642,
      "ei": 643,
      "Ġmin": 644,
      "ĠToma": 645,
      "Ġdes": 646,
      "ĠCri": 647,
      "rile": 648,
      "arÄĥ": 649,
      "Ġmil": 650,
      "ĠMatei": 651,
      "Ġti": 652,
      "Ġfie": 653,
      "mÃ¢n": 654,
      "ĠMari": 655,
      "ene": 656,
      "ĠRusu": 657,
      "Ġma": 658,
      "ndre": 659,
      "ĠNico": 660,
      "gÄĥ": 661,
      "Ġinter": 662,
      "unc": 663,
      "edin": 664,
      "ĠfÄĥ": 665,
      "Ġtran": 666,
      "Ġve": 667,
      "Ġaceast": 668,
      "Å£ia": 669,
      "du": 670,
      "ne": 671,
      "cut": 672,
      "Ġlun": 673,
      "ata": 674,
      "ua": 675,
      "lo": 676,
      "pec": 677,
      "ĠLa": 678,
      "ÈĽia": 679,
      "ĠConstan": 680,
      "tori": 681,
      "Ã®": 682,
      "Ġeuro": 683,
      "arte": 684,
      "âĢĿ,": 685,
      "ĠÃ®ntre": 686,
      "ga": 687,
      "ĠAndre": 688,
      "ĠdupÄĥ": 689,
      "zent": 690,
      "vit": 691,
      "ĠGabrie": 692,
      "ca": 693,
      "tul": 694,
      "tor": 695,
      "oare": 696,
      "ud": 697,
      "Ġ,": 698,
      "izat": 699,
      "anie": 700,
      "Ġdep": 701,
      "Ġluc": 702,
      "Ġnum": 703,
      "ĠÃ®nce": 704,
      "ment": 705,
      "Ġtrans": 706,
      "ces": 707,
      "tin": 708,
      "Ġcele": 709,
      "Ġlui": 710,
      "ĠDe": 711,
      "ÅŁte": 712,
      "Ġul": 713,
      "Ġtimp": 714,
      "Ġdecla": 715,
      "otri": 716,
      "ven": 717,
      "Ġare": 718,
      "uÄĥ": 719,
      "man": 720,
      "Ġaj": 721,
      "Ġfin": 722,
      "Ġaceste": 723,
      "ric": 724,
      "Ġapro": 725,
      "Ġpol": 726,
      "pl": 727,
      "Ã¢nÄĥ": 728,
      "Ġcel": 729,
      "chi": 730,
      "Ġleg": 731,
      "ÄĥtÄĥ": 732,
      "tat": 733,
      "Ġpubl": 734,
      "ive": 735,
      "Ġpriv": 736,
      "iu": 737,
      "Ġob": 738,
      "ord": 739,
      "Ġlei": 740,
      "Ġspus": 741,
      "Ġdintre": 742,
      "Ġpers": 743,
      "rilor": 744,
      "Ġmult": 745,
      "\",": 746,
      "urÄĥ": 747,
      "ĠâĢĵ": 748,
      "itatea": 749,
      "stit": 750,
      "mn": 751,
      "mul": 752,
      "ÈĽion": 753,
      "Ġtot": 754,
      "Ġstat": 755,
      "ore": 756,
      "id": 757,
      "ÅŁi": 758,
      "Å£a": 759,
      "ÈĻte": 760,
      "Ġele": 761,
      "ir": 762,
      "Ġzi": 763,
      "oi": 764,
      "ila": 765,
      "ĠrÄĥ": 766,
      "Ġban": 767,
      "ÅŁti": 768,
      "Ġu": 769,
      "Ġfoarte": 770,
      "ĠâĢĿ": 771,
      "ĠcÃ¢": 772,
      "Ġdez": 773,
      "stru": 774,
      "Ġsus": 775,
      "aliz": 776,
      "Ġra": 777,
      "Å£ion": 778,
      "Ġ7": 779,
      "fel": 780,
      "ĠmÄĥ": 781,
      "buie": 782,
      "vol": 783,
      "Ġcad": 784,
      "ver": 785,
      "Èĺ": 786,
      "os": 787,
      "ĠÃ®ntr": 788,
      "od": 789,
      "inÄĥ": 790,
      "ĠaceastÄĥ": 791,
      "icat": 792,
      "Ġproie": 793,
      "Ġres": 794,
      "ier": 795,
      "lin": 796,
      "Ġpeste": 797,
      "mis": 798,
      "Ġdespre": 799,
      "fer": 800,
      "ĠAl": 801,
      "ucu": 802,
      "ioane": 803,
      "Ġunui": 804,
      "Ġju": 805,
      "rian": 806,
      "Ġreg": 807,
      "Ġmare": 808,
      "mb": 809,
      "ma": 810,
      "ĠpÃ¢nÄĥ": 811,
      "imona": 812,
      "Ġ00": 813,
      "ĠĠ": 814,
      "Ġdoar": 815,
      "Ġnoi": 816,
      "rit": 817,
      "Ġpoate": 818,
      "Ġface": 819,
      "lÄĥ": 820,
      "ĠÈĺ": 821,
      "erv": 822,
      "armen": 823,
      "Ġdis": 824,
      "leta": 825,
      "mil": 826,
      "ela": 827,
      "otrivit": 828,
      "Ġputea": 829,
      "Ġfunc": 830,
      "Ġdeclarat": 831,
      "Ġpolit": 832,
      "po": 833,
      "ren": 834,
      "stina": 835,
      "orii": 836,
      "iana": 837,
      "Ġmulte": 838,
      "gra": 839,
      "sta": 840,
      "Ġ/": 841,
      "sul": 842,
      "ĠdacÄĥ": 843,
      "Ġavea": 844,
      "Ġprop": 845,
      "Ġcal": 846,
      "stian": 847,
      "rio": 848,
      "zul": 849,
      "Ġvi": 850,
      "Ġori": 851,
      "ilv": 852,
      "ored": 853,
      "oredana": 854,
      "Ġsub": 855,
      "Ġtrebuie": 856,
      "Ġparte": 857,
      "Ġcadrul": 858,
      "ilvia": 859,
      "urilor": 860,
      "aela": 861,
      "ativ": 862,
      "fan": 863,
      "Ġmar": 864,
      "erman": 865,
      "imb": 866,
      "Ġ19": 867,
      "aniela": 868,
      "raio": 869,
      "dan": 870,
      "raiova": 871,
      "Ġanul": 872,
      "ox": 873,
      "lex": 874,
      "ĠdouÄĥ": 875,
      "Ġas": 876,
      "Ġel": 877,
      "Ġprob": 878,
      "lorin": 879,
      "aul": 880,
      "ogdan": 881,
      "Ġz": 882,
      "Ġmilioane": 883,
      "Ġinform": 884,
      "Ġh": 885,
      "lari": 886,
      "omÃ¢n": 887,
      "tefan": 888,
      "ente": 889,
      "ĠSimona": 890,
      "Ġsup": 891,
      "Ġorg": 892,
      "Ġdesc": 893,
      "ranÈĽa": 894,
      "ter": 895,
      "ibiu": 896,
      "dus": 897,
      "ĠÃ®nc": 898,
      "Ġmed": 899,
      "Ġinc": 900,
      "Ġcum": 901,
      "ĠpÄĥ": 902,
      "Ġoam": 903,
      "cian": 904,
      "Ġsoc": 905,
      "Ġdom": 906,
      "Ġechi": 907,
      "drian": 908,
      "UA": 909,
      "oana": 910,
      "ĠCarmen": 911,
      "ulia": 912,
      "elia": 913,
      "amelia": 914,
      "ĠAlina": 915,
      "uni": 916,
      "aÈĻi": 917,
      "ĠEmil": 918,
      "ÄĥtÄĥlin": 919,
      "Ġacum": 920,
      "Ġfe": 921,
      "omÃ¢nia": 922,
      "ĠDiana": 923,
      "ieÈĻti": 924,
      "lae": 925,
      "ĠCristian": 926,
      "Ġmod": 927,
      "ĠLaura": 928,
      "loieÈĻti": 929,
      "ĠSilvia": 930,
      "ucian": 931,
      "luj": 932,
      "cte": 933,
      "oane": 934,
      "unÄĥ": 935,
      "ĠcÃ¢nd": 936,
      "ĠNicoleta": 937,
      "ĠLoredana": 938,
      "ĠMarian": 939,
      "amona": 940,
      "ĠMihaela": 941,
      "Ġrepre": 942,
      "imi": 943,
      "Ġavut": 944,
      "raÈĻo": 945,
      "raÈĻov": 946,
      "enii": 947,
      "Ġcea": 948,
      "conom": 949,
      "ĠDaniela": 950,
      "Ġimpor": 951,
      "min": 952,
      "vÄĥ": 953,
      "Ġprezent": 954,
      "ĠBogdan": 955,
      "Ġrec": 956,
      "ĠTe": 957,
      "per": 958,
      "Ġunei": 959,
      "ĠÃ®mp": 960,
      "Ġlucru": 961,
      "ermania": 962,
      "Ġorgan": 963,
      "care": 964,
      "ĠCristina": 965,
      "Ġint": 966,
      "pul": 967,
      "ĠIon": 968,
      "acÄĥu": 969,
      "ĠFlorin": 970,
      "ucure": 971,
      "Ġspec": 972,
      "ĠromÃ¢n": 973,
      "ĠPaul": 974,
      "stitu": 975,
      "curi": 976,
      "ĠOana": 977,
      "pÄĥ": 978,
      "Å£in": 979,
      "oxana": 980,
      "ÈĻoara": 981,
      "Ġeconom": 982,
      "iteÈĻti": 983,
      "ond": 984,
      "imiÈĻoara": 985,
      "Ġajun": 986,
      "ion": 987,
      "odora": 988,
      "andru": 989,
      "radea": 990,
      "lexandru": 991,
      "Ġ?": 992,
      "ĠCamelia": 993,
      "Ġ8": 994,
      "gat": 995,
      "ĠAdrian": 996,
      "Ġsta": 997,
      "ĠMaria": 998,
      "lena": 999,
      "ĠIulia": 1000,
      "Ġform": 1001,
      "Ġcei": 1002,
      "ĠDumitru": 1003,
      "Ġperio": 1004,
      "Ġcomun": 1005,
      "ucureÈĻti": 1006,
      "Ġ10": 1007,
      "ĠurmÄĥ": 1008,
      "ĠCraiova": 1009,
      "ĠÈĺtefan": 1010,
      "ĠÈĻ": 1011,
      "ĠCÄĥtÄĥlin": 1012,
      "Ġactiv": 1013,
      "Ġval": 1014,
      "li": 1015,
      "cur": 1016,
      "onale": 1017,
      "asile": 1018,
      "Ġtoate": 1019,
      "ĠNicolae": 1020,
      "ĠLucian": 1021,
      "ĠRamona": 1022,
      "Ã¢r": 1023,
      "ĠcÄĥtre": 1024,
      "Ġsol": 1025,
      "ĠConstantin": 1026,
      "laÈĽi": 1027,
      "ten": 1028,
      "ĠAce": 1029,
      "Ġparti": 1030,
      "ĠFranÈĽa": 1031,
      "udor": 1032,
      "ĠGabriel": 1033,
      "ĠSibiu": 1034,
      "mele": 1035,
      "mite": 1036,
      "rÄĥila": 1037,
      "Ġdu": 1038,
      "eorg": 1039,
      "Ġmi": 1040,
      "tem": 1041,
      "duce": 1042,
      "ĠAna": 1043,
      "uropa": 1044,
      "eorge": 1045,
      "Ġvot": 1046,
      "ini": 1047,
      "gur": 1048,
      "Ġelect": 1049,
      "Ġdire": 1050,
      "ja": 1051,
      "ĠAndreea": 1052,
      "tici": 1053,
      "Ġasi": 1054,
      "Ġ!": 1055,
      "ĠSUA": 1056,
      "Ġpot": 1057,
      "ĠIoana": 1058,
      "Ġna": 1059,
      "Ġmen": 1060,
      "Ġinve": 1061,
      "cul": 1062,
      "Ġminist": 1063,
      "ĠTeodora": 1064,
      "Ġora": 1065,
      "Ġcer": 1066,
      "ĠPloieÈĻti": 1067,
      "tri": 1068,
      "unea": 1069,
      "put": 1070,
      "ĠRomÃ¢nia": 1071,
      "Ġperioad": 1072,
      "ĠAlexandru": 1073,
      "ĠRoxana": 1074,
      "ĠConstanÈĽa": 1075,
      "iile": 1076,
      "Ġlo": 1077,
      "ace": 1078,
      "dere": 1079,
      "turi": 1080,
      "ĠBraÈĻov": 1081,
      "ĠAndrei": 1082,
      "ĠElena": 1083,
      "Ġulti": 1084,
      "Ġase": 1085,
      "Ġ9": 1086,
      "Ġdezvol": 1087,
      "Ġimportan": 1088,
      "mat": 1089,
      "ĠÃ®nsÄĥ": 1090,
      "rept": 1091,
      "ĠGermania": 1092,
      "olog": 1093,
      "ĠCluj": 1094,
      "ĠIaÈĻi": 1095,
      "nÄĥ": 1096,
      "ĠGabriela": 1097,
      "Ġnoast": 1098,
      "ĠPiteÈĻti": 1099,
      "ĠVasile": 1100,
      "vo": 1101,
      "ase": 1102,
      "da": 1103,
      "Ġba": 1104,
      "Ġanun": 1105,
      "Ġprivind": 1106,
      "ĠU": 1107,
      "ĠTimiÈĻoara": 1108,
      "ÅŁedin": 1109,
      "ĠBacÄĥu": 1110,
      "Ġunde": 1111,
      "ĠTudor": 1112,
      "Ġvorb": 1113,
      "ictor": 1114,
      "Ġlum": 1115,
      "ĠfÄĥcut": 1116,
      "ĠArad": 1117,
      "Ġru": 1118,
      "entul": 1119,
      "til": 1120,
      "Ġimp": 1121,
      "Ġ0": 1122,
      "Ġai": 1123,
      "Ġ000": 1124,
      "toare": 1125,
      "ĠGeorge": 1126,
      "himb": 1127,
      "Ġchi": 1128,
      "mÄĥ": 1129,
      "ĠOradea": 1130,
      "Ġr": 1131,
      "Ġsim": 1132,
      "port": 1133,
      "Ġsec": 1134,
      "Ġproiect": 1135,
      "ĠBucureÈĻti": 1136,
      "feri": 1137,
      "Ġsiste": 1138,
      "Ġastfel": 1139,
      "ptÄĥ": 1140,
      "Ġtrei": 1141,
      "Ġfiind": 1142,
      "Ġcan": 1143,
      "rate": 1144,
      "Ġserv": 1145,
      "Ġpartici": 1146,
      "Ġdiscu": 1147,
      "Ġera": 1148,
      "ĠÅ": 1149,
      "Ġdrept": 1150,
      "Ġfapt": 1151,
      "ita": 1152,
      "uver": 1153,
      "ĠBrÄĥila": 1154,
      "Ġbine": 1155,
      "Ġdat": 1156,
      "cat": 1157,
      "olo": 1158,
      "peri": 1159,
      "Ġ200": 1160,
      "ĠÃ®ncÄĥ": 1161,
      "Ġviz": 1162,
      "do": 1163,
      "ivel": 1164,
      "Ġven": 1165,
      "ÈĽin": 1166,
      "Ġgene": 1167,
      "Ġcons": 1168,
      "ali": 1169,
      "Ġasemen": 1170,
      "ĠEuropa": 1171,
      "Ġfinan": 1172,
      "ral": 1173,
      "Ġnivel": 1174,
      "Ġag": 1175,
      "Ġschimb": 1176,
      "Ġspune": 1177,
      "Ġpersoane": 1178,
      "Ġasemenea": 1179,
      "Äĥr": 1180,
      "Ġmeci": 1181,
      "sp": 1182,
      "fect": 1183,
      "alul": 1184,
      "Ġcontinu": 1185,
      "Ġprem": 1186,
      "Ġtele": 1187,
      "Ġcla": 1188,
      "ÈĽiei": 1189,
      "uno": 1190,
      "Ġspecial": 1191,
      "ĠGalaÈĽi": 1192,
      "inte": 1193,
      "Ġri": 1194,
      "anÄĥ": 1195,
      "ire": 1196,
      "ron": 1197,
      "iei": 1198,
      "scÄĥ": 1199,
      "Ġunor": 1200,
      "Ġproble": 1201,
      "ĠVictor": 1202,
      "Å£iei": 1203,
      "gist": 1204,
      "Ġluni": 1205,
      "Ġpat": 1206,
      "Ġei": 1207,
      "ÈĽiile": 1208,
      "Ġact": 1209,
      "zit": 1210,
      "mo": 1211,
      "Å£iile": 1212,
      "Ġbani": 1213,
      "Ġnici": 1214,
      "Äĥzi": 1215,
      "Ġmom": 1216,
      "ĠÃ®ntÃ¢": 1217,
      "ific": 1218,
      "unci": 1219,
      "ĠpreÅŁedin": 1220,
      "Äĥrii": 1221,
      "Ġsemn": 1222,
      "Ġapl": 1223,
      "dent": 1224,
      "datÄĥ": 1225,
      "Ġreprezent": 1226,
      "Ġchiar": 1227,
      "Ġtur": 1228,
      "Ġzile": 1229,
      "atul": 1230,
      "Ġprima": 1231,
      "Ġprecum": 1232,
      "istÄĥ": 1233,
      "Ġdem": 1234,
      "Ġtrecut": 1235,
      "Ġguver": 1236,
      "ĠÅŀ": 1237,
      "Ġab": 1238,
      "Ġgra": 1239,
      "bile": 1240,
      "Ġ15": 1241,
      "ĠvÄĥ": 1242,
      "Ġutil": 1243,
      "elor": 1244,
      "torii": 1245,
      "hn": 1246,
      "Ġop": 1247,
      "Ġvenit": 1248,
      "Ġprogra": 1249,
      "Ġcompan": 1250,
      "Ġdirect": 1251,
      "Å£ine": 1252,
      "Ġalte": 1253,
      "iar": 1254,
      "vin": 1255,
      "Ġprimul": 1256,
      "Ġsit": 1257,
      "Ġceea": 1258,
      "oldo": 1259,
      "Ġ2018": 1260,
      "Ġ2017": 1261,
      "Ġmun": 1262,
      "Ġtra": 1263,
      "Ġprec": 1264,
      "Ġalege": 1265,
      "ÈĻedin": 1266,
      "Ġbu": 1267,
      "Ġ;": 1268,
      "ans": 1269,
      "Ġpen": 1270,
      "Ġacord": 1271,
      "ÈĽine": 1272,
      "Ġmari": 1273,
      "Ġpa": 1274,
      "ĠdecÃ¢t": 1275,
      "Ġlor": 1276,
      "xim": 1277,
      "regist": 1278,
      "ĠfÄĥrÄĥ": 1279,
      "Ġpublic": 1280,
      "ĠastÄĥzi": 1281,
      "ĠcÃ¢t": 1282,
      "lus": 1283,
      "Äĥri": 1284,
      "arul": 1285,
      "ĠÃ®nceput": 1286,
      "pect": 1287,
      "ĠcetÄĥ": 1288,
      "Ġinf": 1289,
      "mi": 1290,
      "Ġave": 1291,
      "Ġcelor": 1292,
      "Ġpotrivit": 1293,
      "Ġmaj": 1294,
      "stul": 1295,
      "iment": 1296,
      "Ġtehn": 1297,
      "dÄĥ": 1298,
      "Ġinstitu": 1299,
      "Ġanga": 1300,
      "duc": 1301,
      "Ġorganiz": 1302,
      "Ġtri": 1303,
      "ing": 1304,
      "tive": 1305,
      "Ġatunci": 1306,
      "Ġfel": 1307,
      "Ġdeciz": 1308,
      "fici": 1309,
      "prin": 1310,
      "Ã®n": 1311,
      "Ġacesta": 1312,
      "tatea": 1313,
      "iale": 1314,
      "Ġjude": 1315,
      "ort": 1316,
      "Ġconf": 1317,
      "Ġli": 1318,
      "tie": 1319,
      "Ġexe": 1320,
      "ape": 1321,
      "Ġcau": 1322,
      "fÄĥ": 1323,
      "ĠIn": 1324,
      "ĠâĢľ": 1325,
      "Ġexp": 1326,
      "Ġcap": 1327,
      "ĠNu": 1328,
      "itat": 1329,
      "Ġprodus": 1330,
      "Ġen": 1331,
      "asÄĥ": 1332,
      "Ġurma": 1333,
      "Ġk": 1334,
      "sibil": 1335,
      "icii": 1336,
      "derea": 1337,
      "uat": 1338,
      "Ġter": 1339,
      "Ġviit": 1340,
      "Ġprote": 1341,
      "Ġguvern": 1342,
      "Ġmiliar": 1343,
      "Ġci": 1344,
      "Ġinvesti": 1345,
      "Ġ2016": 1346,
      "Ġ12": 1347,
      "ĠÃ®nregist": 1348,
      "Ġfiecare": 1349,
      "Ġame": 1350,
      "Ġreu": 1351,
      "ract": 1352,
      "Å£e": 1353,
      "Ġaceasta": 1354,
      "teri": 1355,
      "Ġautori": 1356,
      "Ġdate": 1357,
      "Ġperioada": 1358,
      "reazÄĥ": 1359,
      "Ġor": 1360,
      "Ġauto": 1361,
      "ef": 1362,
      "Ġ30": 1363,
      "eascÄĥ": 1364,
      "Ġcur": 1365,
      "Ġstabil": 1366,
      "lament": 1367,
      "ĠgÄĥ": 1368,
      "Ġgre": 1369,
      "Ġdolari": 1370,
      "Ġcerce": 1371,
      "Ġvre": 1372,
      "Ġbun": 1373,
      "Ġcop": 1374,
      "ficial": 1375,
      "Ġsocial": 1376,
      "Ġcamp": 1377,
      "lat": 1378,
      "Ġ'": 1379,
      "Ġta": 1380,
      "Äĥm": 1381,
      "scut": 1382,
      "Ġdomeni": 1383,
      "Ġdoi": 1384,
      "tare": 1385,
      "Ġaface": 1386,
      "gi": 1387,
      "Ġgru": 1388,
      "Ġnevo": 1389,
      "Ġinforma": 1390,
      "Ġsen": 1391,
      "Ġconstru": 1392,
      "ĠpreÈĻedin": 1393,
      "Ġintere": 1394,
      "Ġ11": 1395,
      "Ġda": 1396,
      "orilor": 1397,
      "bor": 1398,
      "che": 1399,
      "Ġsur": 1400,
      "rut": 1401,
      "lement": 1402,
      "Ġaproape": 1403,
      "tr": 1404,
      "Ġpun": 1405,
      "Ġche": 1406,
      "mului": 1407,
      "Ġameric": 1408,
      "Ġunul": 1409,
      "Ġmemb": 1410,
      "Ġrealiz": 1411,
      "Ġlocul": 1412,
      "ÈĽilor": 1413,
      "Ġcir": 1414,
      "ĠPotrivit": 1415,
      "ÈĽe": 1416,
      "his": 1417,
      "Ġnou": 1418,
      "Ġbuge": 1419,
      "Ġie": 1420,
      "zut": 1421,
      "Ġneces": 1422,
      "Ġasta": 1423,
      "sten": 1424,
      "Ġmoldo": 1425,
      "gu": 1426,
      "Ġconsi": 1427,
      "upra": 1428,
      "Ġrezul": 1429,
      "Ġdeja": 1430,
      "Ġrespec": 1431,
      "ap": 1432,
      "ant": 1433,
      "erat": 1434,
      "Ġscri": 1435,
      "Ġanului": 1436,
      "Ġavem": 1437,
      "spun": 1438,
      "Ġdeci": 1439,
      "Ġinclus": 1440,
      "ÈĽiilor": 1441,
      "ĠEste": 1442,
      "Ġfac": 1443,
      "Ġpartea": 1444,
      "Ġso": 1445,
      "ĠplÄĥ": 1446,
      "cip": 1447,
      "dific": 1448,
      "Ġsitua": 1449,
      "Å£ele": 1450,
      "ĠsÄĥu": 1451,
      "ĠcÃ¢te": 1452,
      "ĠÃ®i": 1453,
      "Ġcred": 1454,
      "ĠÈĽÄĥ": 1455,
      "arie": 1456,
      "Ġdist": 1457,
      "ament": 1458,
      "ĠaÅŁ": 1459,
      "tra": 1460,
      "Ġvom": 1461,
      "Ġparticip": 1462,
      "zin": 1463,
      "ĠPe": 1464,
      "ĠatÃ¢t": 1465,
      "ac": 1466,
      "abil": 1467,
      "Ġrela": 1468,
      "ĠmÄĥs": 1469,
      "Ġscrie": 1470,
      "Ġ18": 1471,
      "ĠapÄĥ": 1472,
      "Ġfaptul": 1473,
      "Ġaici": 1474,
      "Ġmii": 1475,
      "Ġdisp": 1476,
      "bui": 1477,
      "uta": 1478,
      "Ġministrul": 1479,
      "Ġantre": 1480,
      "Ġmiliarde": 1481,
      "Ġpla": 1482,
      "teazÄĥ": 1483,
      "Ġalt": 1484,
      "gin": 1485,
      "Ġjur": 1486,
      "diul": 1487,
      "uz": 1488,
      "venit": 1489,
      "ÈĽele": 1490,
      "Ġoameni": 1491,
      "Ġreal": 1492,
      "Ġcul": 1493,
      "ÅŁit": 1494,
      "umÄĥ": 1495,
      "Ġini": 1496,
      "icul": 1497,
      "Ġparlament": 1498,
      "tu": 1499,
      "Ġlib": 1500,
      "Ġga": 1501,
      "Ġcere": 1502,
      "Ġspre": 1503,
      "Ġev": 1504,
      "Ġproces": 1505,
      "ĠaratÄĥ": 1506,
      "Ġpier": 1507,
      "Å£at": 1508,
      "Ġposibil": 1509,
      "Ġ25": 1510,
      "rij": 1511,
      "loc": 1512,
      "ĠÈĽ": 1513,
      "dea": 1514,
      "Ġmodific": 1515,
      "ĠnoastrÄĥ": 1516,
      "ĠdesfÄĥ": 1517,
      "iilor": 1518,
      "Ġref": 1519,
      "Ġasupra": 1520,
      "Ġcole": 1521,
      "Ġpartid": 1522,
      "Ġ13": 1523,
      "enilor": 1524,
      "ĠPentru": 1525,
      "Ġtelef": 1526,
      "ĠUn": 1527,
      "Ġinterna": 1528,
      "Ġcar": 1529,
      "Ġcuno": 1530,
      "mbrie": 1531,
      "rim": 1532,
      "ĠÃ®na": 1533,
      "Ġfor": 1534,
      "ĠcreÅŁte": 1535,
      "Å£ilor": 1536,
      "ani": 1537,
      "Ġoficial": 1538,
      "ator": 1539,
      "Ġcondi": 1540,
      "Ġvine": 1541,
      "Ġdoua": 1542,
      "Ġpia": 1543,
      "ĠsÄĥptÄĥ": 1544,
      "ĠÃ®l": 1545,
      "Ġcompe": 1546,
      "inute": 1547,
      "Ġnevoie": 1548,
      "tarea": 1549,
      "Ġ16": 1550,
      "ĠnumÄĥ": 1551,
      "Ġcent": 1552,
      "co": 1553,
      "Ġspun": 1554,
      "end": 1555,
      "Ġsco": 1556,
      "bat": 1557,
      "diu": 1558,
      "use": 1559,
      "vede": 1560,
      "iver": 1561,
      "Ġpatru": 1562,
      "itÄĥÈĽi": 1563,
      "Ġeven": 1564,
      "ĠAm": 1565,
      "Ġaceea": 1566,
      "Ġple": 1567,
      "Ġsalari": 1568,
      "pozi": 1569,
      "Ġajuns": 1570,
      "ati": 1571,
      "izi": 1572,
      "ĠexistÄĥ": 1573,
      "ĠÅ£": 1574,
      "bal": 1575,
      "Ġsep": 1576,
      "Ġpunct": 1577,
      "Ġrev": 1578,
      "ch": 1579,
      "Ġprofe": 1580,
      "Ġcontro": 1581,
      "Ġcomer": 1582,
      "Ġuna": 1583,
      "Ġlans": 1584,
      "tern": 1585,
      "Ġgeneral": 1586,
      "minist": 1587,
      "Ġ14": 1588,
      "ĠÅ£Äĥ": 1589,
      "lul": 1590,
      "ria": 1591,
      "Ġacestui": 1592,
      "Ġafir": 1593,
      "Ġcazul": 1594,
      "Ġdesco": 1595,
      "ĠcÃ¢ÅŁti": 1596,
      "erÄĥ": 1597,
      "ista": 1598,
      "ribu": 1599,
      "ced": 1600,
      "Ġcompanie": 1601,
      "ĠAst": 1602,
      "ĠsÄĥptÄĥmÃ¢n": 1603,
      "Ġrez": 1604,
      "itÄĥÅ£i": 1605,
      "ĠbÄĥ": 1606,
      "irea": 1607,
      "Ġamb": 1608,
      "Ġvo": 1609,
      "Ġcandi": 1610,
      "rum": 1611,
      "Ġoamenii": 1612,
      "icio": 1613,
      "Ġfot": 1614,
      "ÈĽionale": 1615,
      "Ġdev": 1616,
      "ume": 1617,
      "ĠrÃ¢nd": 1618,
      "Ġexpl": 1619,
      "Ġtine": 1620,
      "Ġfol": 1621,
      "Ġeurop": 1622,
      "izare": 1623,
      "Ġfil": 1624,
      "cep": 1625,
      "Ġ100": 1626,
      "Ġdata": 1627,
      "ĠscÄĥ": 1628,
      "Ġpor": 1629,
      "Ġapar": 1630,
      "tit": 1631,
      "ĠfaÅ£Äĥ": 1632,
      "Ġjuc": 1633,
      "Ġconc": 1634,
      "Ġprecizat": 1635,
      "Ġtransmite": 1636,
      "rac": 1637,
      "Ġfinanci": 1638,
      "Ġcor": 1639,
      "pi": 1640,
      "Ġefect": 1641,
      "unii": 1642,
      "Ġpie": 1643,
      "Ġpublice": 1644,
      "Ġdomeniul": 1645,
      "Ġafaceri": 1646,
      "ute": 1647,
      "Ġbene": 1648,
      "utul": 1649,
      "Ġplan": 1650,
      "Ġstatului": 1651,
      "Ġener": 1652,
      "Ġvia": 1653,
      "%,": 1654,
      "Ġado": 1655,
      "stÄĥ": 1656,
      "Ġeurope": 1657,
      "ĠstrÄĥ": 1658,
      "Ġinclusiv": 1659,
      "ĠÃ®ns": 1660,
      "Ġreprezentan": 1661,
      "lui": 1662,
      "Ġmer": 1663,
      "ĠTo": 1664,
      "Ġutilizat": 1665,
      "dic": 1666,
      "bilÄĥ": 1667,
      "Ġadminist": 1668,
      "Å£iilor": 1669,
      "ĠpreÅŁedintele": 1670,
      "Ġtimpul": 1671,
      "Ġangaj": 1672,
      "Ġfolos": 1673,
      "nul": 1674,
      "ln": 1675,
      "Ġacela": 1676,
      "Ġactu": 1677,
      "Ġspor": 1678,
      "ducÄĥ": 1679,
      "ĠPro": 1680,
      "Ġluna": 1681,
      "ascÄĥ": 1682,
      "oarea": 1683,
      "Ġcore": 1684,
      "eze": 1685,
      "bÄĥ": 1686,
      "Ġales": 1687,
      "Ġacestea": 1688,
      "ĠrÄĥspun": 1689,
      "Ġconform": 1690,
      "Ġlegis": 1691,
      "ĠÃ®ÅŁi": 1692,
      "Ġist": 1693,
      "ÈĻit": 1694,
      "ierul": 1695,
      "ĠbunÄĥ": 1696,
      "Ġfond": 1697,
      "ĠÅŁti": 1698,
      "Ġobie": 1699,
      "stat": 1700,
      "Ġmoment": 1701,
      "ĠmenÈĽion": 1702,
      "Ġfisc": 1703,
      "ĠautoritÄĥ": 1704,
      "Ġcomunicat": 1705,
      "Ġsupra": 1706,
      "Ġcaz": 1707,
      "Ġvin": 1708,
      "Ġimpl": 1709,
      "Ġade": 1710,
      "Ġpunc": 1711,
      "mente": 1712,
      "Ġsect": 1713,
      "Ġcin": 1714,
      "erul": 1715,
      "Ã®nd": 1716,
      "amil": 1717,
      "Ġsale": 1718,
      "terior": 1719,
      "tic": 1720,
      "Ġfolo": 1721,
      "Ġlocu": 1722,
      "Ġvrea": 1723,
      "ĠcreÈĻte": 1724,
      "Ġlup": 1725,
      "ximativ": 1726,
      "Ġ17": 1727,
      "Ġeu": 1728,
      "Ġprincip": 1729,
      "ĠdatÄĥ": 1730,
      "Ġsf": 1731,
      "Ġforma": 1732,
      "ĠcetÄĥÈĽ": 1733,
      "ĠjucÄĥ": 1734,
      "ĠDin": 1735,
      "Ġconte": 1736,
      "Ġsolic": 1737,
      "Ġturne": 1738,
      "ĠnumÄĥrul": 1739,
      "unile": 1740,
      "Ġcoo": 1741,
      "Ġuri": 1742,
      "tembrie": 1743,
      "Ġscris": 1744,
      "Ġseptembrie": 1745,
      "ĠaÈĻ": 1746,
      "Ġaplica": 1747,
      "ĠÈĻti": 1748,
      "Ġmond": 1749,
      "Ġechipa": 1750,
      "Ġfamil": 1751,
      "ĠAstfel": 1752,
      "Ġprez": 1753,
      "Ġprobleme": 1754,
      "Ġ21": 1755,
      "Ġimplement": 1756,
      "dele": 1757,
      "pozit": 1758,
      "sat": 1759,
      "Ġmic": 1760,
      "Ġconduce": 1761,
      "ome": 1762,
      "Ġtehnolog": 1763,
      "Ġpas": 1764,
      "Ġspa": 1765,
      "Ġstu": 1766,
      "Ġaproximativ": 1767,
      "Ġmas": 1768,
      "Ġresp": 1769,
      "sit": 1770,
      "Ġconsid": 1771,
      "Ġvic": 1772,
      "Ġasig": 1773,
      "torul": 1774,
      "Ġtrebui": 1775,
      "Ġnoastre": 1776,
      "Ġpromo": 1777,
      "fere": 1778,
      "Ġechipe": 1779,
      "Ġ2015": 1780,
      "Ġon": 1781,
      "Mih": 1782,
      "Ġrep": 1783,
      "Ġsecuri": 1784,
      "ĠcercetÄĥ": 1785,
      "ĠRe": 1786,
      "orului": 1787,
      "ĠpuÅ£in": 1788,
      "rului": 1789,
      "oria": 1790,
      "Ġregi": 1791,
      "ime": 1792,
      "imin": 1793,
      "ÈĽional": 1794,
      "zintÄĥ": 1795,
      "ĠÃ®ntÃ¢mp": 1796,
      "ĠrÄĥmÃ¢n": 1797,
      "Ġproiecte": 1798,
      "Ġpropune": 1799,
      "Ġimportant": 1800,
      "gn": 1801,
      "Ġsolu": 1802,
      "Ġcate": 1803,
      "ĠcÃ¢teva": 1804,
      "sele": 1805,
      "Ġteren": 1806,
      "ilea": 1807,
      "Ġnicio": 1808,
      "tului": 1809,
      "Å£inut": 1810,
      "ĠaÅŁa": 1811,
      "Ġapoi": 1812,
      "ĠEl": 1813,
      "Ġrespectiv": 1814,
      "feren": 1815,
      "Ġima": 1816,
      "bli": 1817,
      "Ġprof": 1818,
      "sion": 1819,
      "otriva": 1820,
      "Ġach": 1821,
      "Ġvedere": 1822,
      "Ga": 1823,
      "Å£ional": 1824,
      "Ġexemp": 1825,
      "labor": 1826,
      "Ġgrup": 1827,
      "Ġea": 1828,
      "aj": 1829,
      "Ġfir": 1830,
      "Ġlid": 1831,
      "anta": 1832,
      "Ġata": 1833,
      "Ġevol": 1834,
      "ĠaflÄĥ": 1835,
      "Ġpuncte": 1836,
      "Ġmesa": 1837,
      "Ġafla": 1838,
      "Ġdum": 1839,
      "und": 1840,
      "Ġore": 1841,
      "Ġ50": 1842,
      "Ġobli": 1843,
      "Ġ2014": 1844,
      "Ġajut": 1845,
      "ĠÃ®ÈĻi": 1846,
      "Ġofer": 1847,
      "Ġlume": 1848,
      "Ġze": 1849,
      "Ġstud": 1850,
      "Ġcapit": 1851,
      "ĠnouÄĥ": 1852,
      "Äĥu": 1853,
      "Ġnim": 1854,
      "Ġorice": 1855,
      "Ġcauza": 1856,
      "ĠanunÅ£at": 1857,
      "Ġput": 1858,
      "Ġvice": 1859,
      "Ġge": 1860,
      "ĠpregÄĥ": 1861,
      "ĠvÃ¢r": 1862,
      "Ġservicii": 1863,
      "ÈĽei": 1864,
      "Ġproduc": 1865,
      "ĠÃ®ncer": 1866,
      "Ġacestei": 1867,
      "Ġum": 1868,
      "dem": 1869,
      "Ġlocal": 1870,
      "au": 1871,
      "izarea": 1872,
      "can": 1873,
      "Ġinten": 1874,
      "Ġmondial": 1875,
      "Ġceva": 1876,
      "Ġelector": 1877,
      "Ġfotbal": 1878,
      "Ġoct": 1879,
      "Ġprimit": 1880,
      "Ġw": 1881,
      "ĠsutÄĥ": 1882,
      "Ġservici": 1883,
      "gen": 1884,
      "zat": 1885,
      "Ġprevede": 1886,
      "ĠfacÄĥ": 1887,
      "ÈĽat": 1888,
      "vi": 1889,
      "Ġtermen": 1890,
      "rarea": 1891,
      "ferit": 1892,
      "Ġpute": 1893,
      "Ġ24": 1894,
      "mnÄĥ": 1895,
      "Ġgrade": 1896,
      "Ġkil": 1897,
      "Ġsuc": 1898,
      "Ġpartene": 1899,
      "Ġmesaj": 1900,
      "Ġacces": 1901,
      "unie": 1902,
      "tia": 1903,
      "Ġdemoc": 1904,
      "Ġcine": 1905,
      "Ġsocie": 1906,
      "Å£ionale": 1907,
      "ĠCu": 1908,
      "ĠaltÄĥ": 1909,
      "ĠÃ®mpotriva": 1910,
      "orme": 1911,
      "Ġvorba": 1912,
      "ĠperioadÄĥ": 1913,
      "ĠÃ®nainte": 1914,
      "Ġdeclara": 1915,
      "fec": 1916,
      "Ġsin": 1917,
      "Ġdece": 1918,
      "Ġexperi": 1919,
      "Ġpopul": 1920,
      "ĠÃ®mb": 1921,
      "oritÄĥ": 1922,
      "ombrie": 1923,
      "Ġanaliz": 1924,
      "Ġneg": 1925,
      "Ġemis": 1926,
      "anuarie": 1927,
      "ĠÅŀi": 1928,
      "Ġoctombrie": 1929,
      "ĠpresÄĥ": 1930,
      "cutÄĥ": 1931,
      "Ġmate": 1932,
      "Ġnat": 1933,
      "Ġianuarie": 1934,
      "ĠÃ®ntÃ¢ln": 1935,
      "todatÄĥ": 1936,
      "bate": 1937,
      "iste": 1938,
      "ĠurmeazÄĥ": 1939,
      "Ġacce": 1940,
      "Ġiunie": 1941,
      "Ġsun": 1942,
      "Ġproced": 1943,
      "Ġbenefic": 1944,
      "ferin": 1945,
      "ĠpreÈĻedintele": 1946,
      "Ġbaza": 1947,
      "Ġnume": 1948,
      "Ġest": 1949,
      "mar": 1950,
      "Ġtemp": 1951,
      "Ġfur": 1952,
      "Ġ22": 1953,
      "Ġajunge": 1954,
      "Ġho": 1955,
      "Ġten": 1956,
      "gul": 1957,
      "Ġaten": 1958,
      "ĠinformeazÄĥ": 1959,
      "dat": 1960,
      "ĠpoliticÄĥ": 1961,
      "utÄĥ": 1962,
      "Ġcli": 1963,
      "ĠÃ®nde": 1964,
      "Ġape": 1965,
      "Ġantren": 1966,
      "Ġcinci": 1967,
      "Ġdevenit": 1968,
      "tei": 1969,
      "Ġind": 1970,
      "ĠpreÅ£": 1971,
      "rale": 1972,
      "Ġmetri": 1973,
      "ĠadÄĥu": 1974,
      "Ġcomerc": 1975,
      "Ġdeschis": 1976,
      "Ġministru": 1977,
      "iat": 1978,
      "Ġcontra": 1979,
      "gust": 1980,
      "ÈĽinut": 1981,
      "Ġmoldov": 1982,
      "Con": 1983,
      "Ġamen": 1984,
      "Ġcri": 1985,
      "Ġmici": 1986,
      "Ġconsum": 1987,
      "rare": 1988,
      "Ġmon": 1989,
      "Ġtelefon": 1990,
      "ĠDacÄĥ": 1991,
      "Ġtotal": 1992,
      "Ġinde": 1993,
      "Ġluat": 1994,
      "ferite": 1995,
      "turÄĥ": 1996,
      "Ġconstitu": 1997,
      "Ġtit": 1998,
      "ĠmuncÄĥ": 1999,
      "Ġacolo": 2000,
      "dit": 2001,
      "Ġfinal": 2002,
      "Ġminute": 2003,
      "Ġcomis": 2004,
      "Po": 2005,
      "Ġperson": 2006,
      "Ġpost": 2007,
      "itÄĥÈĽii": 2008,
      "Ġparcur": 2009,
      "ĠfaÈĽÄĥ": 2010,
      "ctul": 2011,
      "ĠmenÈĽionat": 2012,
      "Ġnorm": 2013,
      "ĠÃ®mpre": 2014,
      "Ġnivelul": 2015,
      "Äĥturi": 2016,
      "Ġputern": 2017,
      "Ġmajor": 2018,
      "Ġrezultate": 2019,
      "tura": 2020,
      "ĠPre": 2021,
      "Ġasigur": 2022,
      "olul": 2023,
      "Ġident": 2024,
      "Ġ40": 2025,
      "Ġcomple": 2026,
      "Ġcopii": 2027,
      "cer": 2028,
      "ĠSe": 2029,
      "Ġjoc": 2030,
      "ĠMai": 2031,
      "anul": 2032,
      "Å£ei": 2033,
      "eamnÄĥ": 2034,
      "Ġocu": 2035,
      "Ġeuropene": 2036,
      "bit": 2037,
      "Ġprivire": 2038,
      "Ġeta": 2039,
      "ĠÃ®nvin": 2040,
      "telor": 2041,
      "Ġaugust": 2042,
      "ĠDupÄĥ": 2043,
      "Ġcrescut": 2044,
      "fa": 2045,
      "Ġcump": 2046,
      "orie": 2047,
      "eful": 2048,
      "tim": 2049,
      "Ġsigur": 2050,
      "Ġzona": 2051,
      "Ġplane": 2052,
      "Ġclas": 2053,
      "ĠacÈĽi": 2054,
      "Ġvaloare": 2055,
      "esc": 2056,
      "Ġstate": 2057,
      "Ġteri": 2058,
      "cute": 2059,
      "Ġfeme": 2060,
      "Ġia": 2061,
      "ĠÃ®nseamnÄĥ": 2062,
      "Ġver": 2063,
      "Ġcalific": 2064,
      "Ġdezvoltarea": 2065,
      "Ġadopt": 2066,
      "ĠpreÅŁedinte": 2067,
      "Ġ199": 2068,
      "Radu": 2069,
      "Å£ionat": 2070,
      "Ġactivitatea": 2071,
      "pend": 2072,
      "Ġpract": 2073,
      "ĠAceast": 2074,
      "Ġmomentul": 2075,
      "ĠreprezintÄĥ": 2076,
      "Ġjo": 2077,
      "ĠlucrÄĥ": 2078,
      "Ġnostru": 2079,
      "Ġadre": 2080,
      "Ġinterv": 2081,
      "Ġcalcul": 2082,
      "iercuri": 2083,
      "Ġpare": 2084,
      "Äĥrile": 2085,
      "Ġprezentat": 2086,
      "Ġmaxim": 2087,
      "Ġ''": 2088,
      "Ġch": 2089,
      "iere": 2090,
      "fica": 2091,
      "Ġenerg": 2092,
      "ĠH": 2093,
      "Ġsistemul": 2094,
      "mii": 2095,
      "ĠDar": 2096,
      "Ġnumai": 2097,
      "Ġlip": 2098,
      "urat": 2099,
      "Ġdupa": 2100,
      "Ġprea": 2101,
      "ĠvÃ¢n": 2102,
      "Ġcontribu": 2103,
      "ĠsusÈĽine": 2104,
      "Ġdeschi": 2105,
      "ĠÃ®nche": 2106,
      "Ġ23": 2107,
      "Ġmodul": 2108,
      "ĠcÃ¢ÈĻti": 2109,
      "Ġtut": 2110,
      "Ġsite": 2111,
      "ĠÃ®ntreprin": 2112,
      "Ġcompaniei": 2113,
      "ricul": 2114,
      "Ġdecembrie": 2115,
      "ficient": 2116,
      "Ġunele": 2117,
      "Ġarti": 2118,
      "Ġagen": 2119,
      "Ġamerican": 2120,
      "Ġart": 2121,
      "scri": 2122,
      "Ġof": 2123,
      "ĠÃ®mpreunÄĥ": 2124,
      "uia": 2125,
      "Ġviitor": 2126,
      "Ġpozi": 2127,
      "oni": 2128,
      "Ġbi": 2129,
      "Ġexper": 2130,
      "ĠÈĽÄĥrii": 2131,
      "Ġlim": 2132,
      "Ġinteres": 2133,
      "voc": 2134,
      "ĠtoatÄĥ": 2135,
      "Ġcateg": 2136,
      "Ġadu": 2137,
      "Ġcapa": 2138,
      "Ġorganizat": 2139,
      "ĠĠĠĠ": 2140,
      "dei": 2141,
      "ĠproducÄĥ": 2142,
      "Ġdore": 2143,
      "Å£ial": 2144,
      "Ġcompeti": 2145,
      "lim": 2146,
      "ative": 2147,
      "Ġsucces": 2148,
      "Ġsprij": 2149,
      "ĠsusÅ£ine": 2150,
      "ĠaÈĻa": 2151,
      "ulie": 2152,
      "ĠjumÄĥ": 2153,
      "Ġaut": 2154,
      "Ġsubie": 2155,
      "Ġlic": 2156,
      "Ġiulie": 2157,
      "Constan": 2158,
      "Ġexemplu": 2159,
      "Ġacestora": 2160,
      "Ġfina": 2161,
      "Ġcontex": 2162,
      "Ġmiercuri": 2163,
      "Ġteritori": 2164,
      "Ġtax": 2165,
      "Ġbune": 2166,
      "Ġdos": 2167,
      "Ġcompanii": 2168,
      "ba": 2169,
      "stea": 2170,
      "Ġpolitice": 2171,
      "ĠadevÄĥ": 2172,
      "Ġeveniment": 2173,
      "ret": 2174,
      "Gheorghe": 2175,
      "Ġsala": 2176,
      "Ġspect": 2177,
      "Ġacestor": 2178,
      "Ġplus": 2179,
      "Ġ26": 2180,
      "car": 2181,
      "pera": 2182,
      "Ġni": 2183,
      "Ġprintre": 2184,
      "Ġpune": 2185,
      "omp": 2186,
      "gerea": 2187,
      "Ġlu": 2188,
      "Ġmartie": 2189,
      "Mihai": 2190,
      "iza": 2191,
      "diat": 2192,
      "lub": 2193,
      "una": 2194,
      "Ġchel": 2195,
      "Ġmoder": 2196,
      "pta": 2197,
      "Ġpolitic": 2198,
      "line": 2199,
      "riile": 2200,
      "Ġmajori": 2201,
      "lal": 2202,
      "ĠarÄĥ": 2203,
      "Ġsing": 2204,
      "Ġfoto": 2205,
      "ĠcÄĥr": 2206,
      "Ġindi": 2207,
      "tal": 2208,
      "ĠpuÈĽin": 2209,
      "Ġobiec": 2210,
      "entele": 2211,
      "Ġpierd": 2212,
      "be": 2213,
      "Ġpermite": 2214,
      "Ġprezen": 2215,
      "Ġputem": 2216,
      "Dumit": 2217,
      "Ġprive": 2218,
      "ÈĽile": 2219,
      "ĠmaÅŁ": 2220,
      "ĠÃ®ncÄĥl": 2221,
      "isi": 2222,
      "Ġpus": 2223,
      "Ġangaja": 2224,
      "Ġdecis": 2225,
      "Ġmode": 2226,
      "Ġtip": 2227,
      "Ġindu": 2228,
      "Ġproiectul": 2229,
      "Ġjusti": 2230,
      "rec": 2231,
      "Ġacu": 2232,
      "Ġgol": 2233,
      "ÅŁtii": 2234,
      "ĠTotodatÄĥ": 2235,
      "Ġmedia": 2236,
      "Ġinvestit": 2237,
      "Ġscur": 2238,
      "Ġindust": 2239,
      "Ġpur": 2240,
      "Ġmine": 2241,
      "Ġpolitici": 2242,
      "Ġfolosi": 2243,
      "Ġjoi": 2244,
      "Ġplat": 2245,
      "Ġobs": 2246,
      "ativÄĥ": 2247,
      "mit": 2248,
      "Ġlege": 2249,
      "ĠmulÅ£i": 2250,
      "ĠPrin": 2251,
      "Ġsimp": 2252,
      "Ġjuri": 2253,
      "Ġmd": 2254,
      "Ġvol": 2255,
      "Ġrealizat": 2256,
      "ante": 2257,
      "Ġrepe": 2258,
      "ĠfinalÄĥ": 2259,
      "Ġaib": 2260,
      "zon": 2261,
      "Ġmedic": 2262,
      "Ġalegerile": 2263,
      "Ġsti": 2264,
      "uror": 2265,
      "urii": 2266,
      "Ġcirca": 2267,
      "ĠIar": 2268,
      "ĠÃ®ncepe": 2269,
      "Ġvoi": 2270,
      "ĠrÄĥmÃ¢ne": 2271,
      "Ġcat": 2272,
      "anÅ£Äĥ": 2273,
      "Ġconsul": 2274,
      "Ġproprie": 2275,
      "Ġbucu": 2276,
      "Ġtuturor": 2277,
      "Ġmand": 2278,
      "Ġfiz": 2279,
      "ĠÈĽarÄĥ": 2280,
      "atori": 2281,
      "Ġdoilea": 2282,
      "Ġsportiv": 2283,
      "Ġprie": 2284,
      "Ġ27": 2285,
      "Ġedi": 2286,
      "Ġimportante": 2287,
      "ferend": 2288,
      "Ġsan": 2289,
      "ÈĽial": 2290,
      "Ġins": 2291,
      "adÄĥ": 2292,
      "vers": 2293,
      "bi": 2294,
      "len": 2295,
      "utat": 2296,
      "run": 2297,
      "lea": 2298,
      "Ġprogram": 2299,
      "Ġcuren": 2300,
      "Ġlocale": 2301,
      "Ġlumea": 2302,
      "Ġafirmat": 2303,
      "Ġkilome": 2304,
      "Ġmij": 2305,
      "ual": 2306,
      "Ġfru": 2307,
      "itÄĥÅ£ii": 2308,
      "Ġorganiza": 2309,
      "Ġraport": 2310,
      "atorii": 2311,
      "Ġom": 2312,
      "Ġextre": 2313,
      "Ã¢ndu": 2314,
      "Ġcompania": 2315,
      "Ġclub": 2316,
      "Ġprimele": 2317,
      "rÃ¢n": 2318,
      "ĠÃ®ncep": 2319,
      "Ġapri": 2320,
      "Ġconstruc": 2321,
      "ĠSunt": 2322,
      "Ġtrece": 2323,
      "Ġultimii": 2324,
      "onsa": 2325,
      "ĠAu": 2326,
      "Ġsubl": 2327,
      "Ġpromov": 2328,
      "Ġsal": 2329,
      "ĠurmÄĥtoare": 2330,
      "Ġpremierul": 2331,
      "Ġvineri": 2332,
      "Ġsistem": 2333,
      "Ġmea": 2334,
      "Ġcontract": 2335,
      "Ġdezvoltare": 2336,
      "Ġprofes": 2337,
      "Ġsum": 2338,
      "Ġec": 2339,
      "ĠsfÃ¢r": 2340,
      "umul": 2341,
      "ĠdepÄĥ": 2342,
      "ĠnumÄĥr": 2343,
      "ĠÈĻedin": 2344,
      "Ġprime": 2345,
      "iul": 2346,
      "ĠfaÅ£a": 2347,
      "Ġ500": 2348,
      "gal": 2349,
      "Ġcalitate": 2350,
      "Ġrecuno": 2351,
      "Nico": 2352,
      "atorul": 2353,
      "Ġpreciz": 2354,
      "Ġdecizia": 2355,
      "ĠÅ£arÄĥ": 2356,
      "Ġabs": 2357,
      "Ġaprilie": 2358,
      "Ilie": 2359,
      "Ġregul": 2360,
      "torilor": 2361,
      "Ġcontinuare": 2362,
      "ĠadÄĥugat": 2363,
      "rele": 2364,
      "ĠjumÄĥtate": 2365,
      "Ġprobabil": 2366,
      "Ġpierdut": 2367,
      "Ġ28": 2368,
      "Ġmotiv": 2369,
      "ins": 2370,
      "ĠCe": 2371,
      "Ġcondus": 2372,
      "Ġcuv": 2373,
      "net": 2374,
      "Ġdumin": 2375,
      "ĠÃ®ng": 2376,
      "Ġtransmis": 2377,
      "Ġreduce": 2378,
      "Ġfran": 2379,
      "ĠTot": 2380,
      "Ġoper": 2381,
      "Ġerau": 2382,
      "Ġscorul": 2383,
      "Ġpens": 2384,
      "Ã®nt": 2385,
      "Ġintre": 2386,
      "ĠacÅ£i": 2387,
      "ĠÃ®ncre": 2388,
      "Cri": 2389,
      "Ġdim": 2390,
      "Ġliber": 2391,
      "Ġfacem": 2392,
      "Ġcampion": 2393,
      "Ġparlamentare": 2394,
      "ĠalÄĥturi": 2395,
      "ĠoraÈĻ": 2396,
      "Ġmunici": 2397,
      "Å£ile": 2398,
      "sei": 2399,
      "ĠÃ®nf": 2400,
      "Ġaprop": 2401,
      "Ġrezol": 2402,
      "cent": 2403,
      "Ġtransport": 2404,
      "Ġprieten": 2405,
      "ĠrÄĥm": 2406,
      "Ġgen": 2407,
      "Ġbloc": 2408,
      "amente": 2409,
      "tii": 2410,
      "Ġsuntem": 2411,
      "Ġmunc": 2412,
      "Ġdescoperi": 2413,
      "Ġultima": 2414,
      "Ġkilometri": 2415,
      "Ġcheltu": 2416,
      "Ġvide": 2417,
      "ĠÃ®ncÃ¢t": 2418,
      "Ġtemperat": 2419,
      "Ġvicepre": 2420,
      "Ġvalori": 2421,
      "Ã¢ngÄĥ": 2422,
      "Ġren": 2423,
      "Ġreferend": 2424,
      "Ġproduse": 2425,
      "Ġgreu": 2426,
      "cin": 2427,
      "reze": 2428,
      "ĠÃ®nregistrat": 2429,
      "Ġinteg": 2430,
      "itori": 2431,
      "Ġdiferite": 2432,
      "Ġatra": 2433,
      "Ġnatura": 2434,
      "zii": 2435,
      "graf": 2436,
      "Ġserie": 2437,
      "cate": 2438,
      "atului": 2439,
      "apte": 2440,
      "curs": 2441,
      "iazÄĥ": 2442,
      "Ġresponsa": 2443,
      "Ġniciun": 2444,
      "Ġrid": 2445,
      "Ġdemon": 2446,
      "rei": 2447,
      "oarece": 2448,
      "Ġnea": 2449,
      "Ġafect": 2450,
      "ĠaibÄĥ": 2451,
      "amentul": 2452,
      "ĠasigurÄĥ": 2453,
      "Mari": 2454,
      "bo": 2455,
      "ierea": 2456,
      "ĠreuÅŁit": 2457,
      "perit": 2458,
      "Ġului": 2459,
      "Å£ul": 2460,
      "Ġconferin": 2461,
      "ose": 2462,
      "ĠdesfÄĥÈĻ": 2463,
      "ÈĽul": 2464,
      "Ġmuz": 2465,
      "lele": 2466,
      "tro": 2467,
      "itare": 2468,
      "ĠcetÄĥÅ£": 2469,
      "Ġsens": 2470,
      "ĠlegÄĥ": 2471,
      "struct": 2472,
      "Ġestim": 2473,
      "Ġjurn": 2474,
      "Ã¢mb": 2475,
      "ĠeuropeanÄĥ": 2476,
      "tific": 2477,
      "Ġpersonal": 2478,
      "lic": 2479,
      "Ġperform": 2480,
      "ordon": 2481,
      "ĠpreÈĻedinte": 2482,
      "ĠÈĽara": 2483,
      "bru": 2484,
      "Ġintro": 2485,
      "Ġdiver": 2486,
      "umite": 2487,
      "Ġ+": 2488,
      "atele": 2489,
      "ĠtrÄĥ": 2490,
      "Ġcerut": 2491,
      "Ġcolabor": 2492,
      "Ġminim": 2493,
      "Ġelectri": 2494,
      "Ġbuget": 2495,
      "Ġcontrol": 2496,
      "ĠFo": 2497,
      "Ġlocuri": 2498,
      "ĠAn": 2499,
      "Ã®t": 2500,
      "ania": 2501,
      "Ġmone": 2502,
      "ĠlÃ¢ngÄĥ": 2503,
      "Ġsingur": 2504,
      "Ġnr": 2505,
      "Ġacestuia": 2506,
      "Ġstabilit": 2507,
      "ogra": 2508,
      "Ġpoli": 2509,
      "uit": 2510,
      "ĠlÄĥ": 2511,
      "Ġrezultat": 2512,
      "Ġmeciul": 2513,
      "Ġoca": 2514,
      "fin": 2515,
      "Ġdeoarece": 2516,
      "Ġcost": 2517,
      "toarea": 2518,
      "Ġconfir": 2519,
      "Ġparticipat": 2520,
      "Ġurile": 2521,
      "''": 2522,
      "ĠmulÈĽi": 2523,
      "Ġexperien": 2524,
      "Ġdrum": 2525,
      "ÅŁe": 2526,
      "Ġprel": 2527,
      "Ġconse": 2528,
      "Ġdemonst": 2529,
      "Ġrespect": 2530,
      "Ġdirector": 2531,
      "siune": 2532,
      "torie": 2533,
      "Ġbanii": 2534,
      "Ġlibe": 2535,
      "ÈĽionalÄĥ": 2536,
      "ĠanunÈĽat": 2537,
      "ĠrÄĥspuns": 2538,
      "gii": 2539,
      "mna": 2540,
      "ĠÃ®nceputul": 2541,
      "Ġ202": 2542,
      "iÈĻti": 2543,
      "Ġsemnat": 2544,
      "Ġliderul": 2545,
      "ĠÅ£Äĥrii": 2546,
      "Ġevolu": 2547,
      "Ġ60": 2548,
      "Ġasisten": 2549,
      "Ġstudiu": 2550,
      "forma": 2551,
      "ĠAcesta": 2552,
      "Ġden": 2553,
      "Ġdocum": 2554,
      "Ġlimb": 2555,
      "ĠdesfÄĥÅŁ": 2556,
      "Ġeconomice": 2557,
      "zare": 2558,
      "Ġmediu": 2559,
      "iembrie": 2560,
      "Ġet": 2561,
      "Ġlansat": 2562,
      "Ġretra": 2563,
      "diului": 2564,
      "Ġnoiembrie": 2565,
      "Å£ionalÄĥ": 2566,
      "Ġcrit": 2567,
      "ĠÃ®nal": 2568,
      "Ġechipei": 2569,
      "Ġciv": 2570,
      "eaza": 2571,
      "ĠbÄĥn": 2572,
      "unÄĥtÄĥ": 2573,
      "Ġexi": 2574,
      "hicul": 2575,
      "Ġamp": 2576,
      "Ġreferi": 2577,
      "Ġexplicat": 2578,
      "Ġaduce": 2579,
      "Ġlegea": 2580,
      "Ġparcursul": 2581,
      "Ġmisi": 2582,
      "Ġsistemului": 2583,
      "inÅ£Äĥ": 2584,
      "Ġfab": 2585,
      "Ġstru": 2586,
      "ĠÃ®ntreb": 2587,
      "Ġevenim": 2588,
      "ptat": 2589,
      "Ġinvit": 2590,
      "Ġaplic": 2591,
      "Ġjucat": 2592,
      "Ġprimar": 2593,
      "Ġguvernare": 2594,
      "dul": 2595,
      "ĠÃ®mbunÄĥtÄĥ": 2596,
      "Andre": 2597,
      "zia": 2598,
      "Ġstatul": 2599,
      "Ġjurul": 2600,
      "Ġprocesul": 2601,
      "den": 2602,
      "Ġoamenilor": 2603,
      "Ġinterme": 2604,
      "ĠvÄĥzut": 2605,
      "Ġproduce": 2606,
      "Ġexc": 2607,
      "ke": 2608,
      "Ġmoldovene": 2609,
      "Ġsele": 2610,
      "Ġveri": 2611,
      "izate": 2612,
      "unilor": 2613,
      "Ġduce": 2614,
      "Ġputut": 2615,
      "inÈĽÄĥ": 2616,
      "Ġsprijin": 2617,
      "ĠÅŁedin": 2618,
      "Ġnumele": 2619,
      "ĠmÄĥr": 2620,
      "Ġproiectului": 2621,
      "Ġgaze": 2622,
      "ĠrÃ¢ndul": 2623,
      "lare": 2624,
      "Ġnumit": 2625,
      "git": 2626,
      "Ġdispozit": 2627,
      "Ġeduc": 2628,
      "Ġinstru": 2629,
      "Ġmani": 2630,
      "Ġsectorul": 2631,
      "cident": 2632,
      "Ġzone": 2633,
      "Ġvrem": 2634,
      "ĠcumpÄĥ": 2635,
      "ĠduminicÄĥ": 2636,
      "ĠAcest": 2637,
      "Ġeuropean": 2638,
      "Ġonline": 2639,
      "bruarie": 2640,
      "ĠpublicÄĥ": 2641,
      "Ġrap": 2642,
      "Ġlucruri": 2643,
      "Ġopin": 2644,
      "Ġefectu": 2645,
      "Ġmerge": 2646,
      "Ġfebruarie": 2647,
      "ĠeconomicÄĥ": 2648,
      "Ġvotat": 2649,
      "Ġelectron": 2650,
      "Ġscu": 2651,
      "Ġextin": 2652,
      "Ġextrem": 2653,
      "Ġef": 2654,
      "Ġsociale": 2655,
      "Ġsupor": 2656,
      "Ġposibilitatea": 2657,
      "derii": 2658,
      "Ġfinala": 2659,
      "aÅ£i": 2660,
      "Ġfinanciare": 2661,
      "Ġstrate": 2662,
      "Ġurmare": 2663,
      "Ġdirec": 2664,
      "iate": 2665,
      "Ġpove": 2666,
      "ĠÃ®ntrea": 2667,
      "Ġpremier": 2668,
      "gere": 2669,
      "Ġ31": 2670,
      "Ġultimul": 2671,
      "Ġconvin": 2672,
      "alului": 2673,
      "ĠÈĺi": 2674,
      "Ġnimic": 2675,
      "Ġmateri": 2676,
      "Ġanumite": 2677,
      "ĠÃ®nÅ£ele": 2678,
      "Ġinv": 2679,
      "portul": 2680,
      "ĠÃ®nvÄĥ": 2681,
      "ĠsÄĥnÄĥ": 2682,
      "ĠbÄĥr": 2683,
      "Ġaco": 2684,
      "ratÄĥ": 2685,
      "Ġdeter": 2686,
      "ĠromÃ¢ni": 2687,
      "Ġexisten": 2688,
      "Ġaflat": 2689,
      "Ġ29": 2690,
      "Ġ35": 2691,
      "Ġachizi": 2692,
      "Gabrie": 2693,
      "jul": 2694,
      "itul": 2695,
      "Ġoferi": 2696,
      "Ġlovit": 2697,
      "Ġdatele": 2698,
      "Ġapa": 2699,
      "ĠjudecÄĥ": 2700,
      "Ġdescoperit": 2701,
      "Ġcooper": 2702,
      "Ġfurn": 2703,
      "Ġobserv": 2704,
      "Ġcuprin": 2705,
      "Ġajutorul": 2706,
      "Ġinstan": 2707,
      "oli": 2708,
      "Ġmedal": 2709,
      "Ġrecent": 2710,
      "Ġpartide": 2711,
      "ĠsÃ®nt": 2712,
      "Ġexer": 2713,
      "op": 2714,
      "Ġport": 2715,
      "Ġpublicat": 2716,
      "ala": 2717,
      "Ġdezbate": 2718,
      "Ġpana": 2719,
      "ĠEu": 2720,
      "ĠcreÅŁtere": 2721,
      "Ġcurs": 2722,
      "Ġtenis": 2723,
      "Ġmeu": 2724,
      "Ġdeputa": 2725,
      "tÄĥr": 2726,
      "ĠfaÈĽa": 2727,
      "Ġtelev": 2728,
      "Ġserviciu": 2729,
      "Ġrapid": 2730,
      "pren": 2731,
      "bilitate": 2732,
      "Ġrat": 2733,
      "Ġziua": 2734,
      "ĠpÄĥst": 2735,
      "Ġdreptul": 2736,
      "Ġconsil": 2737,
      "Ġcapac": 2738,
      "oase": 2739,
      "anÈĽÄĥ": 2740,
      "melor": 2741,
      "Ġ2013": 2742,
      "Ġdra": 2743,
      "kie": 2744,
      "Ġconcu": 2745,
      "Craiova": 2746,
      "Ġlegisla": 2747,
      "Ġcomercial": 2748,
      "Ġfra": 2749,
      "Ġcredi": 2750,
      "Ġ45": 2751,
      "Ġrisc": 2752,
      "ws": 2753,
      "Ġeval": 2754,
      "Ġparteneri": 2755,
      "Ġnecesare": 2756,
      "Ġsecuritate": 2757,
      "Ġfotograf": 2758,
      "Ġclar": 2759,
      "Ã¢mbÄĥtÄĥ": 2760,
      "ĠfuncÅ£ie": 2761,
      "Ġroman": 2762,
      "ss": 2763,
      "Ġmedie": 2764,
      "ghe": 2765,
      "ov": 2766,
      "ĠmarÅ£i": 2767,
      "Ġcurent": 2768,
      "gre": 2769,
      "Ġinclu": 2770,
      "Ġtrimis": 2771,
      "Ġcheltuie": 2772,
      "arta": 2773,
      "Ġdemis": 2774,
      "Ġtelefoane": 2775,
      "Ġcit": 2776,
      "Ġfer": 2777,
      "Ġextra": 2778,
      "Ġprogramul": 2779,
      "RomÃ¢nia": 2780,
      "ĠorÄĥ": 2781,
      "Ġgar": 2782,
      "Ġimag": 2783,
      "ĠNoi": 2784,
      "ĠEx": 2785,
      "Ġprofesion": 2786,
      "ĠcÃ¢ÅŁtigat": 2787,
      "Ġcandidat": 2788,
      "Ġdia": 2789,
      "catÄĥ": 2790,
      "olid": 2791,
      "Ġide": 2792,
      "Ġelimin": 2793,
      "Ġsublini": 2794,
      "ĠrÄĥmas": 2795,
      "Ġasc": 2796,
      "Ġmana": 2797,
      "ĠaÅŁte": 2798,
      "ieri": 2799,
      "Ġvorbit": 2800,
      "rastruct": 2801,
      "aÈĽi": 2802,
      "liment": 2803,
      "Ġinsa": 2804,
      "deri": 2805,
      "Ġscen": 2806,
      "Ġdob": 2807,
      "Ġcreat": 2808,
      "Ġdintr": 2809,
      "Ġlegii": 2810,
      "Ġsezon": 2811,
      "Ġexecu": 2812,
      "ĠhotÄĥr": 2813,
      "lar": 2814,
      "ĠechipÄĥ": 2815,
      "Ġautom": 2816,
      "tÄĥm": 2817,
      "ĠreuÈĻit": 2818,
      "Ġstrateg": 2819,
      "ĠmenÅ£ionat": 2820,
      "Ġsimplu": 2821,
      "ĠÅ£ara": 2822,
      "Ġlan": 2823,
      "ĠiniÈĽi": 2824,
      "SUA": 2825,
      "Ġparticipa": 2826,
      "Ġinfrastruct": 2827,
      "semn": 2828,
      "Ġintermediul": 2829,
      "Ġmajoritatea": 2830,
      "Ġultimele": 2831,
      "Ġantrepren": 2832,
      "Ġvideo": 2833,
      "act": 2834,
      "Ġdecizie": 2835,
      "Ġdatelor": 2836,
      "Ġlin": 2837,
      "FranÈĽa": 2838,
      "Ġtrebu": 2839,
      "Ġdiscutat": 2840,
      "Ġdeose": 2841,
      "ĠÃ®nÈĽele": 2842,
      "itarea": 2843,
      "iÅŁ": 2844,
      "Ġsimila": 2845,
      "Ġcontinua": 2846,
      "Ġidentific": 2847,
      "Ġreglement": 2848,
      "Ġstruct": 2849,
      "Sibiu": 2850,
      "ĠÃ®nto": 2851,
      "Ġvie": 2852,
      "andar": 2853,
      "Ġopera": 2854,
      "Ġimplic": 2855,
      "carea": 2856,
      "Ġpozit": 2857,
      "Ġdeparte": 2858,
      "Ġvaloarea": 2859,
      "Ġgenera": 2860,
      "Ġimplementarea": 2861,
      "zac": 2862,
      "ĠtoÅ£i": 2863,
      "Ã£": 2864,
      "lan": 2865,
      "ĠacasÄĥ": 2866,
      "ĠuÅŁ": 2867,
      "Ġcara": 2868,
      "Ġdirectorul": 2869,
      "Ġimagin": 2870,
      "Ġfal": 2871,
      "Ġnoul": 2872,
      "ĠoferÄĥ": 2873,
      "ĠsÃ¢mbÄĥtÄĥ": 2874,
      "ÈĻe": 2875,
      "sesc": 2876,
      "ĠAceasta": 2877,
      "Ġdocument": 2878,
      "BacÄĥu": 2879,
      "ĠDo": 2880,
      "Ġpag": 2881,
      "Ġpropri": 2882,
      "gea": 2883,
      "unde": 2884,
      "Ġfrance": 2885,
      "Ġtari": 2886,
      "Ġprelu": 2887,
      "ferÄĥ": 2888,
      "Ġdemocra": 2889,
      "turile": 2890,
      "Ġalegeri": 2891,
      "ĠgÃ¢nd": 2892,
      "ĠJ": 2893,
      "Ġaver": 2894,
      "ĠacelaÅŁi": 2895,
      "tiva": 2896,
      "Ġfinalul": 2897,
      "Ġintrat": 2898,
      "Ġconsolid": 2899,
      "Ġdestul": 2900,
      "Ġanii": 2901,
      "Ġturi": 2902,
      "Ġsper": 2903,
      "Ġactivitate": 2904,
      "stin": 2905,
      "Ġsupliment": 2906,
      "ĠmaÈĻ": 2907,
      "locu": 2908,
      "Ġlunii": 2909,
      "Ġmodern": 2910,
      "Oradea": 2911,
      "tp": 2912,
      "Ġpropus": 2913,
      "La": 2914,
      "pat": 2915,
      "Ġvede": 2916,
      "iri": 2917,
      "ionul": 2918,
      "Ġalegerilor": 2919,
      "Ġsocializare": 2920,
      "Ġconta": 2921,
      "Ġdepus": 2922,
      "Ġistori": 2923,
      "IaÈĻi": 2924,
      "pres": 2925,
      "Ġdaca": 2926,
      "Ġmulti": 2927,
      "Ġadus": 2928,
      "Ġinformat": 2929,
      "ĠbazÄĥ": 2930,
      "je": 2931,
      "ĠCre": 2932,
      "Ġdub": 2933,
      "pte": 2934,
      "Ġ2012": 2935,
      "itÄĥÈĽile": 2936,
      "Ġpenal": 2937,
      "Ġinsta": 2938,
      "Ġdipl": 2939,
      "PloieÈĻti": 2940,
      "Ġime": 2941,
      "Ġintr": 2942,
      "ĠmÄĥsurÄĥ": 2943,
      "ĠvÃ¢nd": 2944,
      "tÄĥrii": 2945,
      "Ġinflu": 2946,
      "Ġspe": 2947,
      "ĠoraÅŁ": 2948,
      "Ġinterpre": 2949,
      "Ġrus": 2950,
      "Ġreforme": 2951,
      "ĠarÄĥtat": 2952,
      "fice": 2953,
      "Ġimpus": 2954,
      "ensi": 2955,
      "ĠfuncÈĽia": 2956,
      "Ġabu": 2957,
      "Ġdetal": 2958,
      "ĠCei": 2959,
      "Ġtotul": 2960,
      "Ġexpri": 2961,
      "GalaÈĽi": 2962,
      "ĠÈĽÄĥri": 2963,
      "Ġabsol": 2964,
      "Ġrecu": 2965,
      "ĠÃ®ncepÃ¢nd": 2966,
      "ĠadicÄĥ": 2967,
      "Ġordin": 2968,
      "Ġfolosit": 2969,
      "Cluj": 2970,
      "ĠpregÄĥti": 2971,
      "Ġsemi": 2972,
      "Ġpartidului": 2973,
      "Ġbugetul": 2974,
      "ig": 2975,
      "istul": 2976,
      "Ġlung": 2977,
      "ĠsÄĥptÄĥmÃ¢ni": 2978,
      "Ġconcurs": 2979,
      "Ġit": 2980,
      "Ġtrat": 2981,
      "ĠfÄĥcute": 2982,
      "Ġunii": 2983,
      "Ġses": 2984,
      "bili": 2985,
      "iber": 2986,
      "alep": 2987,
      "ĠÃ®nvins": 2988,
      "Ġfostul": 2989,
      "Ġimpa": 2990,
      "tÄĥÈĽii": 2991,
      "ism": 2992,
      "selor": 2993,
      "Ã®nÄĥ": 2994,
      "ConstanÈĽa": 2995,
      "ub": 2996,
      "Ġgaz": 2997,
      "Ġsubliniat": 2998,
      "ole": 2999,
      "Ġadministrat": 3000,
      "Europa": 3001,
      "Ġprimi": 3002,
      "Ġpersoanele": 3003,
      "BraÈĻov": 3004,
      "Ġcam": 3005,
      "Ġmaga": 3006,
      "ĠcreÈĻtere": 3007,
      "ctele": 3008,
      "Ġsla": 3009,
      "Ġevid": 3010,
      "Ġmarcat": 3011,
      "Ġeduca": 3012,
      "nit": 3013,
      "Ġfav": 3014,
      "ĠÅŁef": 3015,
      "ĠâĢĶ": 3016,
      "Ġexplo": 3017,
      "Ġprocu": 3018,
      "cipa": 3019,
      "Ġcorup": 3020,
      "Ġsuprafa": 3021,
      "Ġpopula": 3022,
      "Dinu": 3023,
      "uale": 3024,
      "ĠÃ®mi": 3025,
      "ĠChi": 3026,
      "Ġdomenii": 3027,
      "ĠÅ£Äĥri": 3028,
      "Ġenergie": 3029,
      "raj": 3030,
      "Ġcultura": 3031,
      "Ãİn": 3032,
      "Ġviitoare": 3033,
      "Ġdoresc": 3034,
      "Ġalin": 3035,
      "Ġvedea": 3036,
      "ex": 3037,
      "enom": 3038,
      "ĠAsta": 3039,
      "Ġambas": 3040,
      "ĠacelaÈĻi": 3041,
      "ĠvÃ¢rstÄĥ": 3042,
      "BucureÈĻti": 3043,
      "Ġrad": 3044,
      "Ġtro": 3045,
      "Ġglo": 3046,
      "Stoica": 3047,
      "Ġcand": 3048,
      "Ã¢nt": 3049,
      "zie": 3050,
      "las": 3051,
      "Ġanim": 3052,
      "Ġprincipal": 3053,
      "Popescu": 3054,
      "ĠAp": 3055,
      "hid": 3056,
      "ĠgÄĥsi": 3057,
      "Ġopt": 3058,
      "Ġridic": 3059,
      "Ġimpozit": 3060,
      "Ġcif": 3061,
      "Ġcopil": 3062,
      "ĠÃ®nain": 3063,
      "Ġbeneficia": 3064,
      "Germania": 3065,
      "geri": 3066,
      "Puscas": 3067,
      "TimiÈĻoara": 3068,
      "rg": 3069,
      "Ġalb": 3070,
      "Ġ300": 3071,
      "Ġcompon": 3072,
      "Ġabord": 3073,
      "ĠavÃ¢nd": 3074,
      "Ġexista": 3075,
      "ĠcÃ®": 3076,
      "Ġacele": 3077,
      "ĠNe": 3078,
      "ĠtoÈĽi": 3079,
      "Å£ioneazÄĥ": 3080,
      "Ġexam": 3081,
      "ĠÃ®ndepl": 3082,
      "Ġobliga": 3083,
      "Ġaverti": 3084,
      "fera": 3085,
      "ivÄĥ": 3086,
      "Ġasigura": 3087,
      "Ġmijloc": 3088,
      "enz": 3089,
      "Ġ70": 3090,
      "Ġlucrurile": 3091,
      "Ġconsider": 3092,
      "Ġnord": 3093,
      "ĠMe": 3094,
      "Ġsca": 3095,
      "Vlad": 3096,
      "Ġnoua": 3097,
      "Ġscurt": 3098,
      "Ġreferendum": 3099,
      "ĠlunÄĥ": 3100,
      "Ġscopul": 3101,
      "zarea": 3102,
      "Barbu": 3103,
      "ĠtÃ¢r": 3104,
      "lig": 3105,
      "Ġcandida": 3106,
      "ĠPri": 3107,
      "dera": 3108,
      "Ġcontri": 3109,
      "ĠpiaÅ£a": 3110,
      "Ġresur": 3111,
      "Ġdomeniu": 3112,
      "ĠHalep": 3113,
      "Arad": 3114,
      "porta": 3115,
      "Ġsfer": 3116,
      "Ġfund": 3117,
      "istat": 3118,
      "inele": 3119,
      "ĠcetÄĥÈĽenilor": 3120,
      "Ġdus": 3121,
      "Ġegal": 3122,
      "Ġreac": 3123,
      "ame": 3124,
      "Ġscor": 3125,
      "oldova": 3126,
      "Ġfinanciar": 3127,
      "ritan": 3128,
      "Ġexact": 3129,
      "Ġsuspend": 3130,
      "Ġelectoral": 3131,
      "ativa": 3132,
      "Stan": 3133,
      "Ġ32": 3134,
      "mentul": 3135,
      "ĠmicÄĥ": 3136,
      "onul": 3137,
      "Ġcond": 3138,
      "Ġscop": 3139,
      "Ġexter": 3140,
      "Ġteritoriul": 3141,
      "ĠdÄĥ": 3142,
      "omand": 3143,
      "ĠprevÄĥ": 3144,
      "ĠfÄĥcutÄĥ": 3145,
      "Ġcame": 3146,
      "Ġintra": 3147,
      "Diaconu": 3148,
      "Ġaer": 3149,
      "oneze": 3150,
      "Ġredus": 3151,
      "Ġmembru": 3152,
      "Ġetc": 3153,
      "Ġinfluen": 3154,
      "Ionescu": 3155,
      "PiteÈĻti": 3156,
      "rand": 3157,
      "Ġcol": 3158,
      "ricol": 3159,
      "Ġmanife": 3160,
      "Ġoport": 3161,
      "Ġlit": 3162,
      "Ġbe": 3163,
      "ialog": 3164,
      "Ġtradi": 3165,
      "ĠscÄĥzut": 3166,
      "Ġince": 3167,
      "ĠprimÄĥ": 3168,
      "Ġfiscale": 3169,
      "Ġmediul": 3170,
      "bilitatea": 3171,
      "Ġvederea": 3172,
      "Ġ198": 3173,
      "ĠÃ®nchis": 3174,
      "nea": 3175,
      "aren": 3176,
      "ĠlegÄĥturÄĥ": 3177,
      "ĠAcum": 3178,
      "Ġdemocrat": 3179,
      "Ġanti": 3180,
      "Ġaloc": 3181,
      "Ġgrat": 3182,
      "Ġadvers": 3183,
      "ilate": 3184,
      "Ġfata": 3185,
      "Ġcasti": 3186,
      "uÅŁi": 3187,
      "Ġjuca": 3188,
      "Ġtransform": 3189,
      "ĠconsiderÄĥ": 3190,
      "Ġcircul": 3191,
      "Ġtranzac": 3192,
      "Ġ90": 3193,
      "Badea": 3194,
      "ÈĻtri": 3195,
      "Dumitrescu": 3196,
      "Ciobanu": 3197,
      "mos": 3198,
      "Ġil": 3199,
      "Ġlegate": 3200,
      "Ġ80": 3201,
      "Ġlider": 3202,
      "teze": 3203,
      "ĠÃİntre": 3204,
      "Ġieri": 3205,
      "Ġresta": 3206,
      "Ġbritan": 3207,
      "Ġpoten": 3208,
      "ĠmÄĥsuri": 3209,
      "Ġclien": 3210,
      "enta": 3211,
      "Ġenerge": 3212,
      "BrÄĥila": 3213,
      "Ġexport": 3214,
      "ĠfuncÈĽie": 3215,
      "Ġagre": 3216,
      "Ġturneului": 3217,
      "arat": 3218,
      "Ġdispozi": 3219,
      "Ġdomnul": 3220,
      "Ġecran": 3221,
      "Marin": 3222,
      "pen": 3223,
      "Ġeficient": 3224,
      "Ġinteri": 3225,
      "ĠformÄĥ": 3226,
      "Ġdialog": 3227,
      "ule": 3228,
      "Ġfact": 3229,
      "Ġavanta": 3230,
      "Ġregim": 3231,
      "Matei": 3232,
      "Ġcrea": 3233,
      "ĠalegÄĥ": 3234,
      "Ġformat": 3235,
      "Ġzece": 3236,
      "Ġdesi": 3237,
      "arcÄĥ": 3238,
      "Ġvite": 3239,
      "Ġprovoc": 3240,
      "Ġdocu": 3241,
      "Ġdiferen": 3242,
      "unda": 3243,
      "ciz": 3244,
      "Ġrezi": 3245,
      "Ġ2019": 3246,
      "ĠelectoralÄĥ": 3247,
      "ĠÃ®ntreaga": 3248,
      "goare": 3249,
      "Ġfenom": 3250,
      "Ġtru": 3251,
      "ciat": 3252,
      "Ġmunicipi": 3253,
      "Ġperman": 3254,
      "Ġpetre": 3255,
      "Nistor": 3256,
      "oa": 3257,
      "Ġsemnific": 3258,
      "Ġoportun": 3259,
      "ĠCele": 3260,
      "ĠÃİnsÄĥ": 3261,
      "Ġconducerea": 3262,
      "Ġaprobat": 3263,
      "ĠimportantÄĥ": 3264,
      "Ġaud": 3265,
      "Ġaprec": 3266,
      "Ġvehicul": 3267,
      "ĠnaÈĽionale": 3268,
      "Ġaliment": 3269,
      "ĠpiaÅ£Äĥ": 3270,
      "Ġdur": 3271,
      "oanÄĥ": 3272,
      "Ġcontext": 3273,
      "Ġoferit": 3274,
      "Ġtransp": 3275,
      "Ġprotec": 3276,
      "Ġcondam": 3277,
      "Ġprev": 3278,
      "Ġnimeni": 3279,
      "ĠÃ®nscri": 3280,
      "Ġtale": 3281,
      "Ġlua": 3282,
      "Ġaur": 3283,
      "ĠniciodatÄĥ": 3284,
      "ĠCa": 3285,
      "orale": 3286,
      "Ġvedem": 3287,
      "Popa": 3288,
      "ĠcÄĥru": 3289,
      "ĠpÄĥr": 3290,
      "ĠinformaÅ£ii": 3291,
      "inta": 3292,
      "Ġveni": 3293,
      "Ġprincipa": 3294,
      "otul": 3295,
      "Ġvizi": 3296,
      "Ġvictorie": 3297,
      "ĠpersoanÄĥ": 3298,
      "Ġdific": 3299,
      "ĠÃ®ntÃ¢mplÄĥ": 3300,
      "stele": 3301,
      "Ġprivat": 3302,
      "Ġadministra": 3303,
      "Ġmicro": 3304,
      "ĠaÈĻte": 3305,
      "stiv": 3306,
      "Ġseara": 3307,
      "ĠpreÈĽ": 3308,
      "Ġaltfel": 3309,
      "Ġspeci": 3310,
      "sm": 3311,
      "ĠPar": 3312,
      "Ġpersoanelor": 3313,
      "Ġacordat": 3314,
      "ĠgÄĥsit": 3315,
      "ĠÃ®nchi": 3316,
      "Ġelabor": 3317,
      "Ġconce": 3318,
      "Ġterm": 3319,
      "ĠapÄĥrut": 3320,
      "Ġemisi": 3321,
      "Ġambasad": 3322,
      "nic": 3323,
      "Ġaste": 3324,
      "ÈĽelor": 3325,
      "ise": 3326,
      "ziu": 3327,
      "Ġsud": 3328,
      "Ġrecomand": 3329,
      "Ġuniver": 3330,
      "ĠMoldova": 3331,
      "Ġpres": 3332,
      "tivÄĥ": 3333,
      "atoare": 3334,
      "ĠromÃ¢ne": 3335,
      "Ġconclu": 3336,
      "Ġsuma": 3337,
      "ĠÃ®nd": 3338,
      "Toma": 3339,
      "Ġcrearea": 3340,
      "Ġpermis": 3341,
      "ĠmÃ¢": 3342,
      "icale": 3343,
      "itÄĥÅ£ile": 3344,
      "Ġimediat": 3345,
      "inÅ£a": 3346,
      "Ġproblemele": 3347,
      "ĠproblemÄĥ": 3348,
      "Ġprintr": 3349,
      "Ġtineri": 3350,
      "Ġstad": 3351,
      "Ġ33": 3352,
      "Ġselec": 3353,
      "ĠâĢĿ,": 3354,
      "ĠsfÃ¢rÅŁit": 3355,
      "Ġcunoscu": 3356,
      "ĠaceeaÅŁi": 3357,
      "sific": 3358,
      "Ġvigoare": 3359,
      "Ġrenun": 3360,
      "Ġadresa": 3361,
      "Ġaccident": 3362,
      "Ġmodel": 3363,
      "Ġacea": 3364,
      "Ġafara": 3365,
      "ĠcontinuÄĥ": 3366,
      "ĠluptÄĥ": 3367,
      "Ġmu": 3368,
      "Ġavans": 3369,
      "ĠSÄĥ": 3370,
      "Ġgesti": 3371,
      "lativ": 3372,
      "Ġrezultatele": 3373,
      "ĠFoto": 3374,
      "Ġae": 3375,
      "Ġpra": 3376,
      "Ġsea": 3377,
      "onÄĥ": 3378,
      "Ġdove": 3379,
      "Ġcale": 3380,
      "Ġcontin": 3381,
      "Ġlegi": 3382,
      "Ġpi": 3383,
      "tion": 3384,
      "Ġacesteia": 3385,
      "Ġdiverse": 3386,
      "ni": 3387,
      "Ġambele": 3388,
      "iminea": 3389,
      "ĠmÃ¢n": 3390,
      "Ġrealizarea": 3391,
      "mai": 3392,
      "oasÄĥ": 3393,
      "zute": 3394,
      "Ġdea": 3395,
      "ĠsÄĥi": 3396,
      "Ġjurid": 3397,
      "ĠcÄĥlÄĥ": 3398,
      "ĠNo": 3399,
      "ft": 3400,
      "Ġbo": 3401,
      "iciile": 3402,
      "reak": 3403,
      "ĠurmÄĥtoarele": 3404,
      "amenii": 3405,
      "Ġcreste": 3406,
      "anii": 3407,
      "ĠPÃ¢nÄĥ": 3408,
      "Ġarg": 3409,
      "Ġimo": 3410,
      "Ġprotej": 3411,
      "Ġechip": 3412,
      "Ġtone": 3413,
      "Ġconstat": 3414,
      "cid": 3415,
      "Ġeconomic": 3416,
      "Ġsanc": 3417,
      "Ġobligat": 3418,
      "Ġcant": 3419,
      "Ġanche": 3420,
      "Ġdeveni": 3421,
      "Ġefort": 3422,
      "Carmen": 3423,
      "asa": 3424,
      "ĠÈĻef": 3425,
      "Ġbiro": 3426,
      "Ġexclus": 3427,
      "entÄĥ": 3428,
      "Ġsport": 3429,
      "Ġdiminea": 3430,
      "Ġconflic": 3431,
      "Ġputernic": 3432,
      "iin": 3433,
      "Ġacel": 3434,
      "Ġsecret": 3435,
      "Ġpil": 3436,
      "Ġero": 3437,
      "ĠCel": 3438,
      "ÈĻtii": 3439,
      "ĠhotÄĥrÃ¢": 3440,
      "Rusu": 3441,
      "Å£inÄĥ": 3442,
      "Ġliv": 3443,
      "ĠConform": 3444,
      "stitui": 3445,
      "Ġcampanie": 3446,
      "ĠÃ®ncercat": 3447,
      "zate": 3448,
      "Ġlea": 3449,
      "Ġproblema": 3450,
      "Ġfrumo": 3451,
      "cii": 3452,
      "inale": 3453,
      "gno": 3454,
      "Ġconcuren": 3455,
      "Ġevalu": 3456,
      "arului": 3457,
      "ÈĽinÄĥ": 3458,
      "Ġech": 3459,
      "Ġset": 3460,
      "Ġgerman": 3461,
      "Ġatin": 3462,
      "ĠsituaÈĽia": 3463,
      "Ġlista": 3464,
      "Ġbilate": 3465,
      "riei": 3466,
      "Ġfirme": 3467,
      "Florin": 3468,
      "ers": 3469,
      "ĠmulÈĽ": 3470,
      "Ġviitorul": 3471,
      "ĠÃ®ngrij": 3472,
      "Ġanterior": 3473,
      "Ġinterven": 3474,
      "Ġobiectiv": 3475,
      "Ġmodificarea": 3476,
      "lina": 3477,
      "Ġdisponi": 3478,
      "ÈĽiunea": 3479,
      "Ġasum": 3480,
      "ĠcetÄĥÈĽenii": 3481,
      "Laura": 3482,
      "Ġindepend": 3483,
      "Ġdele": 3484,
      "Ġremar": 3485,
      "Ġminutul": 3486,
      "ĠcreÅŁterea": 3487,
      "nist": 3488,
      "tivele": 3489,
      "ĠÃ®nregistrate": 3490,
      "Ġmonitori": 3491,
      "col": 3492,
      "ĠmultÄĥ": 3493,
      "ĠfuncÅ£ia": 3494,
      "Ġparticipan": 3495,
      "Ġcookie": 3496,
      "Ġmam": 3497,
      "Ġvreme": 3498,
      "Ġfacil": 3499,
      "Ġelectrice": 3500,
      "Ġbus": 3501,
      "ĠTre": 3502,
      "ĠtrecutÄĥ": 3503,
      "Ġcompar": 3504,
      "Ġistoria": 3505,
      "Diana": 3506,
      "Ġsmar": 3507,
      "pere": 3508,
      "ĠLe": 3509,
      "Ġkm": 3510,
      "Ġrealizate": 3511,
      "Ġlupta": 3512,
      "Paul": 3513,
      "Nicoleta": 3514,
      "Ġile": 3515,
      "mentele": 3516,
      "Ġvotul": 3517,
      "Ġelectorale": 3518,
      "Ġcontextul": 3519,
      "50": 3520,
      "Emil": 3521,
      "Ġorganizarea": 3522,
      "Ġnegoc": 3523,
      "Ion": 3524,
      "Ġvarian": 3525,
      "ĠurmÄĥri": 3526,
      "Ġsimpl": 3527,
      "Ġcomerciale": 3528,
      "lalte": 3529,
      "roase": 3530,
      "ĠComp": 3531,
      "Ġconcer": 3532,
      "nat": 3533,
      "Ġvio": 3534,
      "Å£iunea": 3535,
      "ferent": 3536,
      "Ġanume": 3537,
      "Å£iona": 3538,
      "Ġatmos": 3539,
      "Ġdepune": 3540,
      "minat": 3541,
      "ĠromÃ¢nesc": 3542,
      "ĠspaÅ£i": 3543,
      "ÅŁtia": 3544,
      "ĠplÄĥte": 3545,
      "Ġpractic": 3546,
      "Ġpagina": 3547,
      "art": 3548,
      "Ġserviciile": 3549,
      "ĠiniÅ£i": 3550,
      "Ġprofit": 3551,
      "tur": 3552,
      "Ġsto": 3553,
      "Ġ36": 3554,
      "zele": 3555,
      "ĠobÅ£inut": 3556,
      "Ġeconomie": 3557,
      "ĠplÄĥti": 3558,
      "Ġnormal": 3559,
      "Ġspectac": 3560,
      "zeazÄĥ": 3561,
      "Ġopozi": 3562,
      "Ġdeb": 3563,
      "ĠvinÄĥ": 3564,
      "izatÄĥ": 3565,
      "ĠEa": 3566,
      "Ġasoc": 3567,
      "Ġcorect": 3568,
      "Ġchine": 3569,
      "ĠpriveÅŁte": 3570,
      "Ġstandar": 3571,
      "Ġcompaniile": 3572,
      "Simona": 3573,
      "Un": 3574,
      "Ġtrea": 3575,
      "toria": 3576,
      "ĠprecizeazÄĥ": 3577,
      "Ġapel": 3578,
      "stic": 3579,
      "Ġ400": 3580,
      "Ġdeputat": 3581,
      "Ġulterior": 3582,
      "cea": 3583,
      "Ġajuta": 3584,
      "Ġrecord": 3585,
      "Ġconfrun": 3586,
      "ĠpreÅŁedintelui": 3587,
      "Ġtrafic": 3588,
      "Ġtelevizi": 3589,
      "cedent": 3590,
      "ĠromÃ¢nÄĥ": 3591,
      "Ġministrului": 3592,
      "ĠviaÅ£Äĥ": 3593,
      "ĠautoritÄĥÈĽile": 3594,
      "Loredana": 3595,
      "cla": 3596,
      "inÈĽa": 3597,
      "siunea": 3598,
      "Ġdigit": 3599,
      "Ġacumul": 3600,
      "ĠpÄĥre": 3601,
      "Ġautost": 3602,
      "Ġevenimente": 3603,
      "ĠsearÄĥ": 3604,
      "Ġaccep": 3605,
      "Ġsemif": 3606,
      "Daniela": 3607,
      "tari": 3608,
      "rÄĥm": 3609,
      "Ġtex": 3610,
      "ĠlucreazÄĥ": 3611,
      "Ġaprob": 3612,
      "Ġhot": 3613,
      "Ġsurprin": 3614,
      "Ġlocuit": 3615,
      "ÈĽea": 3616,
      "Ġanal": 3617,
      "ĠÃİntr": 3618,
      "Ġmobil": 3619,
      "Ġdistru": 3620,
      "Ġangajat": 3621,
      "Ġpresup": 3622,
      "ĠnÄĥ": 3623,
      "Ġsuf": 3624,
      "ĠnaÅ£ionale": 3625,
      "Ġvreau": 3626,
      "Ġiz": 3627,
      "Ġha": 3628,
      "inat": 3629,
      "Ġbreak": 3630,
      "cÄĥri": 3631,
      "Å£iuni": 3632,
      "Ġsute": 3633,
      "Ġmodele": 3634,
      "ibile": 3635,
      "Ġvechi": 3636,
      "ĠfinanÈĽ": 3637,
      "ĠÅŁase": 3638,
      "Ġserviciilor": 3639,
      "ĠadevÄĥrat": 3640,
      "Ġnaturale": 3641,
      "ĠÃ®nlocu": 3642,
      "Ġdezvoltat": 3643,
      "ĠUl": 3644,
      "Ġverific": 3645,
      "ĠÃİ": 3646,
      "mon": 3647,
      "tÄĥri": 3648,
      "erce": 3649,
      "Ġdau": 3650,
      "Ġcuce": 3651,
      "hone": 3652,
      "Ġurgen": 3653,
      "lÄĥdi": 3654,
      "Ġinstala": 3655,
      "ĠpÄĥrin": 3656,
      "Ġmembrii": 3657,
      "Ġcazuri": 3658,
      "ĠbÄĥnci": 3659,
      "tatÄĥ": 3660,
      "uÈĻi": 3661,
      "Ġclim": 3662,
      "Ġsurse": 3663,
      "Ġnor": 3664,
      "Ġrest": 3665,
      "ursa": 3666,
      "Ġ34": 3667,
      "Cristian": 3668,
      "Å£elor": 3669,
      "sca": 3670,
      "Ġvizite": 3671,
      "ĠinformaÈĽii": 3672,
      "ĠsituaÅ£ia": 3673,
      "ĠÃ®ncheiat": 3674,
      "Äĥrilor": 3675,
      "Ġazi": 3676,
      "Ġinternet": 3677,
      "Ġvenituri": 3678,
      "iÈĽi": 3679,
      "Ġpic": 3680,
      "Ġmecan": 3681,
      "ierÄĥ": 3682,
      "Ġalta": 3683,
      "portat": 3684,
      "Ġformul": 3685,
      "Oana": 3686,
      "ect": 3687,
      "iectul": 3688,
      "Ġvir": 3689,
      "tarile": 3690,
      "Ġnet": 3691,
      "Ġfizice": 3692,
      "CÄĥtÄĥlin": 3693,
      "rbÄĥ": 3694,
      "ĠcÃ¢ÈĻtigat": 3695,
      "Ġocazia": 3696,
      "Ġprocuro": 3697,
      "Ġuc": 3698,
      "artÄĥ": 3699,
      "ĠcuvÃ¢nt": 3700,
      "ĠÃ®ncredere": 3701,
      "Ġtrofe": 3702,
      "Roxana": 3703,
      "Ġcomunic": 3704,
      "ĠpiaÈĽa": 3705,
      "ĠAceastÄĥ": 3706,
      "Cristina": 3707,
      "Ġaltor": 3708,
      "ĠpoatÄĥ": 3709,
      "Ġministe": 3710,
      "ĠacÈĽiuni": 3711,
      "Ġbusine": 3712,
      "Ġtreia": 3713,
      "tphone": 3714,
      "azÄĥ": 3715,
      "rete": 3716,
      "Ġanual": 3717,
      "Ġagricul": 3718,
      "Ġscand": 3719,
      "Ġconcent": 3720,
      "Ġcivil": 3721,
      "Ġacoperi": 3722,
      "Ġcheltuiel": 3723,
      "Ġimpre": 3724,
      "Ġfestiv": 3725,
      "ĠclÄĥdi": 3726,
      "ĠEi": 3727,
      "Ġrepede": 3728,
      "ĠChiar": 3729,
      "Ġ197": 3730,
      "ĠvizitÄĥ": 3731,
      "ĠpÃ®nÄĥ": 3732,
      "Ġmuri": 3733,
      "Ġspit": 3734,
      "Ġartic": 3735,
      "Ġcineva": 3736,
      "Nicolae": 3737,
      "ordin": 3738,
      "ĠsÄĥrbÄĥ": 3739,
      "ĠcreÈĻterea": 3740,
      "ĠAve": 3741,
      "Ġpriori": 3742,
      "Ġinterz": 3743,
      "Ġajung": 3744,
      "ĠÈĻeful": 3745,
      "Ġutilizatori": 3746,
      "Ġsubiect": 3747,
      "ĠcÄĥrora": 3748,
      "ger": 3749,
      "Ġtreilea": 3750,
      "arilor": 3751,
      "Ġtrime": 3752,
      "Ġzeci": 3753,
      "pro": 3754,
      "Ġfacut": 3755,
      "astrÄĥ": 3756,
      "ĠtotalÄĥ": 3757,
      "Ġvorbim": 3758,
      "ĠsÄĥnÄĥtate": 3759,
      "Ġsmartphone": 3760,
      "vie": 3761,
      "Ġsalarii": 3762,
      "Dumitru": 3763,
      "ĠÅŁeful": 3764,
      "ĠplÃ¢n": 3765,
      "Ġtransfer": 3766,
      "Mihaela": 3767,
      "Ġfenomen": 3768,
      "Ġtransparen": 3769,
      "ble": 3770,
      "Ġdefin": 3771,
      "Ġdesemn": 3772,
      "Ġcunoscut": 3773,
      "ĠniÅŁte": 3774,
      "Te": 3775,
      "atorilor": 3776,
      "ĠÅŁan": 3777,
      "Marian": 3778,
      "Ġstele": 3779,
      "Ġmot": 3780,
      "Å£iune": 3781,
      "ĠvÃ¢nzÄĥ": 3782,
      "Alina": 3783,
      "Iulia": 3784,
      "tice": 3785,
      "ĠodatÄĥ": 3786,
      "Ġsemna": 3787,
      "Ġgrad": 3788,
      "Ġmeto": 3789,
      "Ã®r": 3790,
      "Ġturul": 3791,
      "Ġreviz": 3792,
      "Adrian": 3793,
      "arele": 3794,
      "ÈĻtia": 3795,
      "Ġbate": 3796,
      "ada": 3797,
      "amna": 3798,
      "Ġcompetit": 3799,
      "Ġactualiz": 3800,
      "Ġfamilia": 3801,
      "log": 3802,
      "iesc": 3803,
      "ĠoarÄĥ": 3804,
      "Ġcarie": 3805,
      "Ġzis": 3806,
      "Ġserviciul": 3807,
      "ĠsumÄĥ": 3808,
      "ÈĽiona": 3809,
      "Ġstrad": 3810,
      "Ġtrimite": 3811,
      "Ġsolicitat": 3812,
      "Ġasigurarea": 3813,
      "oarÄĥ": 3814,
      "Ġsate": 3815,
      "itar": 3816,
      "Ġprocur": 3817,
      "ĠcondiÅ£iile": 3818,
      "Ġfabri": 3819,
      "ht": 3820,
      "Ġmag": 3821,
      "ĠÅŁtiu": 3822,
      "Ġcategoria": 3823,
      "Ġ2020": 3824,
      "Ġprecedent": 3825,
      "Ġapropi": 3826,
      "ĠafirmÄĥ": 3827,
      "Maria": 3828,
      "undÄĥ": 3829,
      "ĠÃ®ncas": 3830,
      "Ġpopor": 3831,
      "Ġmeciuri": 3832,
      "ĠsÄĥptÄĥmÃ¢nÄĥ": 3833,
      "siv": 3834,
      "Ġsuficient": 3835,
      "Ġlumii": 3836,
      "Ġpaci": 3837,
      "Ġregiune": 3838,
      "ticÄĥ": 3839,
      "antÄĥ": 3840,
      "ĠtÃ¢nÄĥ": 3841,
      "ĠAt": 3842,
      "Ġcomune": 3843,
      "mÃ¢nt": 3844,
      "Ġspeciali": 3845,
      "Ġdimensi": 3846,
      "ĠpreÈĻedintelui": 3847,
      "Ġcolaborare": 3848,
      "Ġ2010": 3849,
      "Ġvoturi": 3850,
      "Ġcircum": 3851,
      "Ġcolec": 3852,
      "Ġplecat": 3853,
      "Constantin": 3854,
      "Lucian": 3855,
      "Ġemo": 3856,
      "Ġcoordon": 3857,
      "ĠÅ¢": 3858,
      "Ġimpact": 3859,
      "Ġjos": 3860,
      "Ġnecesar": 3861,
      "Ġexerc": 3862,
      "Ġucra": 3863,
      "stra": 3864,
      "Ġpromis": 3865,
      "Ġdumnea": 3866,
      "Ġprelun": 3867,
      "Ġep": 3868,
      "Ġteme": 3869,
      "inutÄĥ": 3870,
      "Ġceleb": 3871,
      "Ġabuz": 3872,
      "ĠAr": 3873,
      "Ġinfrac": 3874,
      "ÅŁa": 3875,
      "teaptÄĥ": 3876,
      "ĠAceste": 3877,
      "ĠstrÄĥinÄĥ": 3878,
      "Ġmere": 3879,
      "ĠÃ®ntrevede": 3880,
      "Ġmembri": 3881,
      "ĠinternaÈĽionale": 3882,
      "ĠOamenii": 3883,
      "Ġchesti": 3884,
      "Ġpunctul": 3885,
      "Ġbenefici": 3886,
      "Ġlimba": 3887,
      "Å£it": 3888,
      "Ġcrede": 3889,
      "ĠTrebuie": 3890,
      "Bogdan": 3891,
      "Ġanumit": 3892,
      "Ġcalificat": 3893,
      "Ġbusiness": 3894,
      "anÅ£a": 3895,
      "ÈĽioneazÄĥ": 3896,
      "ĠsusÅ£inut": 3897,
      "Ġ2008": 3898,
      "Ġcolegii": 3899,
      "ĠviaÅ£a": 3900,
      "Ġgaran": 3901,
      "Ġcaracte": 3902,
      "Ġitali": 3903,
      "Elena": 3904,
      "Silvia": 3905,
      "omin": 3906,
      "Ġprezi": 3907,
      "Ġplata": 3908,
      "Ġdomn": 3909,
      "ĠfiscalÄĥ": 3910,
      "Ġdiv": 3911,
      "Ġprogre": 3912,
      "rÄĥrii": 3913,
      "Ġ2009": 3914,
      "Ġprogramului": 3915,
      "Ġfilm": 3916,
      "ĠtÄĥ": 3917,
      "ĠgrÄĥ": 3918,
      "Ġinterne": 3919,
      "ĠobÈĽinut": 3920,
      "ilib": 3921,
      "ĠAc": 3922,
      "Ġabia": 3923,
      "Ġturneu": 3924,
      "Ġcomplet": 3925,
      "Ġdispozitive": 3926,
      "Ġdetalii": 3927,
      "Ġsond": 3928,
      "zei": 3929,
      "Ġadau": 3930,
      "Ġfinaliz": 3931,
      "Ġmiliard": 3932,
      "Ġistorie": 3933,
      "ĠtÃ¢rziu": 3934,
      "Ġofic": 3935,
      "Ġghe": 3936,
      "Ġdecat": 3937,
      "Ġindicat": 3938,
      "Ġmoldoveni": 3939,
      "Ġthe": 3940,
      "Ġapre": 3941,
      "Ġpache": 3942,
      "Ġatac": 3943,
      "Ġsprijinul": 3944,
      "reia": 3945,
      "erve": 3946,
      "Ġaltele": 3947,
      "Ġ37": 3948,
      "Ġperspec": 3949,
      "Ġfamilie": 3950,
      "'',": 3951,
      "Ġmultor": 3952,
      "Ġcomplex": 3953,
      "Ġrefuz": 3954,
      "ĠdatoritÄĥ": 3955,
      "ĠÃ®ntÃ¢mplat": 3956,
      "limp": 3957,
      "Ġdiplom": 3958,
      "sen": 3959,
      "Ġbron": 3960,
      "Ġsuper": 3961,
      "ĠjudecatÄĥ": 3962,
      "Ġexprimat": 3963,
      "gine": 3964,
      "ĠzonÄĥ": 3965,
      "ĠsingurÄĥ": 3966,
      "ok": 3967,
      "icei": 3968,
      "ĠsusÅ£in": 3969,
      "ronom": 3970,
      "Ġmembre": 3971,
      "Ġutilizatorilor": 3972,
      "ĠsfÃ¢rÅŁitul": 3973,
      "ĠmÄĥrf": 3974,
      "ĠCum": 3975,
      "Èĺtefan": 3976,
      "ĠsÄĥptÄĥmÃ¢na": 3977,
      "Ġlipsa": 3978,
      "Ġmurit": 3979,
      "irii": 3980,
      "alele": 3981,
      "Ġspeciale": 3982,
      "Andreea": 3983,
      "Ġdor": 3984,
      "zile": 3985,
      "itÄĥÈĽilor": 3986,
      "ĠnaÅ£ional": 3987,
      "ĠgÄĥs": 3988,
      "Ramona": 3989,
      "Ġtop": 3990,
      "Ġdeput": 3991,
      "Ġcentrul": 3992,
      "ualÄĥ": 3993,
      "Ġvam": 3994,
      "Ġteat": 3995,
      "indu": 3996,
      "Ġintroduce": 3997,
      "Ġrezultatul": 3998,
      "Ġ%": 3999,
      "Ġexcep": 4000,
      "ĠstrÃ¢n": 4001,
      "Ġzilei": 4002,
      "Ġprocedura": 4003,
      "Ġrol": 4004,
      "ĠÈĻtiinÈĽÄĥ": 4005,
      "Ġjurnali": 4006,
      "Ġolimp": 4007,
      "Ġmediului": 4008,
      "ĠvÄĥd": 4009,
      "Ġaparta": 4010,
      "Camelia": 4011,
      "Ġciber": 4012,
      "Ġrevenit": 4013,
      "Ġdepo": 4014,
      "Ġdeoseb": 4015,
      "Vasile": 4016,
      "tar": 4017,
      "ĠcÄĥreia": 4018,
      "Ġamin": 4019,
      "Ġproiectele": 4020,
      "ĠrelateazÄĥ": 4021,
      "scrip": 4022,
      "ĠuÅŁor": 4023,
      "Ġhe": 4024,
      "ĠcÃ¢n": 4025,
      "Ġatribu": 4026,
      "Ġpromovarea": 4027,
      "Ġsar": 4028,
      "Ġsalariul": 4029,
      "Ġfolosite": 4030,
      "inile": 4031,
      "ĠcercetÄĥtorii": 4032,
      "ĠdobÃ¢n": 4033,
      "Ġdocumente": 4034,
      "Alexandru": 4035,
      "enÅ£i": 4036,
      "Ġopinia": 4037,
      "Ġfim": 4038,
      "ĠsolicitÄĥ": 4039,
      "ĠAvem": 4040,
      "zatÄĥ": 4041,
      "Ġefec": 4042,
      "pri": 4043,
      "udin": 4044,
      "ros": 4045,
      "Andrei": 4046,
      "ĠÃ®ncu": 4047,
      "Ġproto": 4048,
      "ĠnaÈĽional": 4049,
      "ĠÃ®ncÄĥr": 4050,
      "George": 4051,
      "ruc": 4052,
      "ĠMin": 4053,
      "Ġurmat": 4054,
      "Ġ600": 4055,
      "Ġfiscal": 4056,
      "Ġprovo": 4057,
      "tale": 4058,
      "Ġbancar": 4059,
      "Ġvotare": 4060,
      "ĠinvestiÅ£ii": 4061,
      "ĠcÃ®nd": 4062,
      "Ġdestin": 4063,
      "utate": 4064,
      "ĠÃ®ncearcÄĥ": 4065,
      "Ġsubstan": 4066,
      "vat": 4067,
      "Ġproce": 4068,
      "Å£iale": 4069,
      "cri": 4070,
      "Ġisi": 4071,
      "Ġcursul": 4072,
      "Ġinteresul": 4073,
      "Ġmers": 4074,
      "Ġviolen": 4075,
      "ĠreÈĽea": 4076,
      "Ġsuferit": 4077,
      "Ġjurnal": 4078,
      "Ġliberal": 4079,
      "Ġsediul": 4080,
      "Ġinclude": 4081,
      "Ana": 4082,
      "Ioana": 4083,
      "Ġdori": 4084,
      "ĠÃ®nfiin": 4085,
      "Ġmagaz": 4086,
      "enÈĽi": 4087,
      "Ġmete": 4088,
      "sibile": 4089,
      "ĠmulÅ£": 4090,
      "ional": 4091,
      "Ġciud": 4092,
      "Ġwe": 4093,
      "Ġvirtu": 4094,
      "Victor": 4095,
      "Ġvul": 4096,
      "Ġbro": 4097,
      "Ġproc": 4098,
      "ĠÈĽin": 4099,
      "Ġstare": 4100,
      "Ġpermit": 4101,
      "Ġeconomici": 4102,
      "Tudor": 4103,
      "Ġvis": 4104,
      "Ġcercetare": 4105,
      "deauna": 4106,
      "Ġgoluri": 4107,
      "ĠPrintre": 4108,
      "ocam": 4109,
      "Ġpartida": 4110,
      "ĠcÃ¢ÅŁtigÄĥ": 4111,
      "Ġtehnologie": 4112,
      "Teodora": 4113,
      "mane": 4114,
      "Ġlegislat": 4115,
      "ĠspaÈĽi": 4116,
      "Ġpasa": 4117,
      "ĠetapÄĥ": 4118,
      "Ġinterviu": 4119,
      "Ġ#": 4120,
      "ctor": 4121,
      "ĠsfÃ¢rÈĻit": 4122,
      "fecte": 4123,
      "enÈĽa": 4124,
      "Ġfara": 4125,
      "Ġfemin": 4126,
      "ĠcondiÈĽiile": 4127,
      "ĠautoritÄĥÅ£ile": 4128,
      "Gabriela": 4129,
      "arii": 4130,
      "ĠÅ£in": 4131,
      "Ġcelelalte": 4132,
      "Ġ150": 4133,
      "Ġstimul": 4134,
      "mne": 4135,
      "relor": 4136,
      "Ġcitat": 4137,
      "ocmai": 4138,
      "Ġexpozi": 4139,
      "formÄĥ": 4140,
      "ologice": 4141,
      "ĠjudeÅ£ul": 4142,
      "Ġfurniz": 4143,
      "Ġfundament": 4144,
      "tÄĥÅ£ii": 4145,
      "Ġdefinit": 4146,
      "Ġvrut": 4147,
      "ralÄĥ": 4148,
      "Ġpetro": 4149,
      "Ġtest": 4150,
      "Ġlucrat": 4151,
      "ginea": 4152,
      "Ġregiunea": 4153,
      "com": 4154,
      "Ġpart": 4155,
      "Ġeconomia": 4156,
      "Ġcompaniilor": 4157,
      "Ġcompeten": 4158,
      "Ġturneul": 4159,
      "Ġscump": 4160,
      "Ġeconomiei": 4161,
      "Ġconsidera": 4162,
      "Ġaflate": 4163,
      "nu": 4164,
      "unct": 4165,
      "late": 4166,
      "otat": 4167,
      "ficÄĥ": 4168,
      "Ġ2011": 4169,
      "ĠreprezentanÈĽii": 4170,
      "Ġutilizatorii": 4171,
      "ĠCred": 4172,
      "datul": 4173,
      "Å£ea": 4174,
      "amentele": 4175,
      "ĠdezvÄĥ": 4176,
      "ĠparticipÄĥ": 4177,
      "ĠĠĠĠĠĠĠĠ": 4178,
      "Ġelectronice": 4179,
      "ĠaÅ£i": 4180,
      "Ġinfla": 4181,
      "Ġprotest": 4182,
      "Gabriel": 4183,
      "Ġnecon": 4184,
      "Ġrolul": 4185,
      "Ġpersonale": 4186,
      "Ġevent": 4187,
      "Ġexplica": 4188,
      "Ġproiectelor": 4189,
      "Ġspori": 4190,
      "Ġruse": 4191,
      "Ġdecizii": 4192,
      "Ġactual": 4193,
      "Ġavantaj": 4194,
      "ifica": 4195,
      "unat": 4196,
      "ierii": 4197,
      "Ġprimarul": 4198,
      "Ġmoldoven": 4199,
      "ĠaceeaÈĻi": 4200,
      "Ġdelega": 4201,
      "Ġstea": 4202,
      "ÈĻa": 4203,
      "Ġmilion": 4204,
      "Ġcelui": 4205,
      "Ġmeciului": 4206,
      "Ġveniturile": 4207,
      "Ġrealitate": 4208,
      "Ġindustria": 4209,
      "Ġdura": 4210,
      "Ġefici": 4211,
      "Ġarbit": 4212,
      "Ġavoc": 4213,
      "Ġorganizate": 4214,
      "Ġreveni": 4215,
      "ĠÅŁtiinÅ£Äĥ": 4216,
      "Ġmor": 4217,
      "entat": 4218,
      "teaza": 4219,
      "udici": 4220,
      "ĠinvestiÈĽii": 4221,
      "Ġpropriu": 4222,
      "spre": 4223,
      "olit": 4224,
      "urarea": 4225,
      "Ġindiferent": 4226,
      "iÅ£i": 4227,
      "ĠreÅ£ele": 4228,
      "Ġ38": 4229,
      "ĠToate": 4230,
      "Ġclasamentul": 4231,
      "Ġ\",": 4232,
      "Ġprodusele": 4233,
      "ĠmaÅŁini": 4234,
      "Ġridicat": 4235,
      "Ġcomparativ": 4236,
      "eau": 4237,
      "Ġaminte": 4238,
      "ĠrÄĥz": 4239,
      "Ġstabile": 4240,
      "Ġoptim": 4241,
      "Ġextraordin": 4242,
      "Ġdorit": 4243,
      "Ġexce": 4244,
      "Ġ2000": 4245,
      "Ġreducerea": 4246,
      "ĠÃ®nalt": 4247,
      "Ġexecutiv": 4248,
      "Ġsuplimentare": 4249,
      "tru": 4250,
      "uite": 4251,
      "Ġmotive": 4252,
      "ĠpremierÄĥ": 4253,
      "Ġcarb": 4254,
      "Ġideea": 4255,
      "ĠCerce": 4256,
      "ĠajungÄĥ": 4257,
      "Ġzilele": 4258,
      "Ġfamiliei": 4259,
      "Ġargum": 4260,
      "ful": 4261,
      "ova": 4262,
      "Ġfron": 4263,
      "ÈĽiunii": 4264,
      "Ġgran": 4265,
      "ĠÃ®mprum": 4266,
      "Ġfemei": 4267,
      "Ġbronz": 4268,
      "aptea": 4269,
      "Ġuria": 4270,
      "Ġsalariile": 4271,
      "__": 4272,
      "guri": 4273,
      "enÅ£Äĥ": 4274,
      "lip": 4275,
      "Ġproduselor": 4276,
      "Ġcunoa": 4277,
      "Ġseama": 4278,
      "seze": 4279,
      "Ġvizitat": 4280,
      "Ġintrodus": 4281,
      "ĠstrÄĥinÄĥtate": 4282,
      "ĠCea": 4283,
      "Ġautoturi": 4284,
      "Ġrecuper": 4285,
      "Ġpan": 4286,
      "Ġargin": 4287,
      "Ġvicti": 4288,
      "Ġtrebuia": 4289,
      "stice": 4290,
      "Ġfrum": 4291,
      "Ġbile": 4292,
      "gem": 4293,
      "ÅŁtilor": 4294,
      "Ġprezenta": 4295,
      "Ġcorp": 4296,
      "ĠcetÄĥÈĽeni": 4297,
      "Ġmijlo": 4298,
      "cilor": 4299,
      "Ġafec": 4300,
      "ÈĽiuni": 4301,
      "ĠobÈĽine": 4302,
      "Ġrepri": 4303,
      "Ġputere": 4304,
      "Ġconstituie": 4305,
      "Ġcircula": 4306,
      "Ġii": 4307,
      "anÈĽa": 4308,
      "Ġoric": 4309,
      "ÈĽiune": 4310,
      "udine": 4311,
      "Ġcopiii": 4312,
      "ĠpriveÈĻte": 4313,
      "Ġautomo": 4314,
      "erva": 4315,
      "Ġmini": 4316,
      "Ġaspec": 4317,
      "ĠfinanÅ£": 4318,
      "ĠamericanÄĥ": 4319,
      "Ġimagini": 4320,
      "mitÄĥ": 4321,
      "ĠÈĻan": 4322,
      "Ġkg": 4323,
      "Ġpensii": 4324,
      "ainte": 4325,
      "sh": 4326,
      "Ġmeri": 4327,
      "Ġintegra": 4328,
      "Ġcolect": 4329,
      "Ġeuropeni": 4330,
      "ĠviaÈĽÄĥ": 4331,
      "Ġferm": 4332,
      "Ġdeputatul": 4333,
      "ww": 4334,
      "ĠÈĽine": 4335,
      "atice": 4336,
      "Ġtransnist": 4337,
      "ĠProiectul": 4338,
      "ĠÈĻtiin": 4339,
      "Ġstudii": 4340,
      "forme": 4341,
      "enÅ£a": 4342,
      "Ġetape": 4343,
      "Ġvremea": 4344,
      "Ġinceput": 4345,
      "ner": 4346,
      "uzÄĥ": 4347,
      "anca": 4348,
      "ĠobÅ£ine": 4349,
      "ĠnecesarÄĥ": 4350,
      "Ġcard": 4351,
      "Ġtitlul": 4352,
      "Ġdemonstrat": 4353,
      "ĠÃ®nscris": 4354,
      "Ġasa": 4355,
      "Ġbra": 4356,
      "siuni": 4357,
      "Ġfelul": 4358,
      "Ġpreziden": 4359,
      "ware": 4360,
      "ĠstÄĥ": 4361,
      "Ġpresa": 4362,
      "Ġgrav": 4363,
      "Ġparticiparea": 4364,
      "Ġrecunoa": 4365,
      "Ġabsolut": 4366,
      "Ġrit": 4367,
      "ĠaÈĽi": 4368,
      "Ġreuni": 4369,
      "Ġbuni": 4370,
      "gerii": 4371,
      "ĠpÄĥcate": 4372,
      "Ġcererea": 4373,
      "Ġfonduri": 4374,
      "Ġexterne": 4375,
      "Ġdificil": 4376,
      "ĠreÈĽele": 4377,
      "Ġrob": 4378,
      "Ġamericani": 4379,
      "Ġcredit": 4380,
      "Ġuman": 4381,
      "Ġfemeie": 4382,
      "Ġmoldovenesc": 4383,
      "ĠbÄĥrbat": 4384,
      "Ġopti": 4385,
      "Ġtelefonul": 4386,
      "Ġconsultan": 4387,
      "Ġglob": 4388,
      "Ġgestion": 4389,
      "ĠMÄĥ": 4390,
      "Ġpolitica": 4391,
      "ĠmodificÄĥri": 4392,
      "ĠÈĻo": 4393,
      "Ġfri": 4394,
      "Ġ39": 4395,
      "Ġwww": 4396,
      "Ġaccesul": 4397,
      "Ġsingura": 4398,
      "ĠSi": 4399,
      "Ġlegal": 4400,
      "Ġexecut": 4401,
      "Ġtaxe": 4402,
      "Ġechilib": 4403,
      "ĠcurÃ¢nd": 4404,
      "ĠvÃ¢rsta": 4405,
      "ĠvicepreÅŁedin": 4406,
      "ÈĻor": 4407,
      "ĠCo": 4408,
      "Ġcalitatea": 4409,
      "Ġcampio": 4410,
      "Ġconsecin": 4411,
      "Ġmereu": 4412,
      "Ġaccent": 4413,
      "ĠnaÈĽionalÄĥ": 4414,
      "Ġschimbat": 4415,
      "Ġlicita": 4416,
      "Ġradio": 4417,
      "gale": 4418,
      "ĠEchi": 4419,
      "Ġimpo": 4420,
      "ĠurmÃ¢nd": 4421,
      "Ġlungul": 4422,
      "ĠÃ®mpÄĥr": 4423,
      "Ġorb": 4424,
      "ĠoficialÄĥ": 4425,
      "ĠcondiÅ£ii": 4426,
      "Ġtransnistre": 4427,
      "Ġdru": 4428,
      "ĠcasÄĥ": 4429,
      "Ġ55": 4430,
      "ĠrÄĥu": 4431,
      "Ġprezentate": 4432,
      "ĠcauzÄĥ": 4433,
      "Ġpierde": 4434,
      "Ġputin": 4435,
      "Ġapari": 4436,
      "Ġrevizui": 4437,
      "Ġprogno": 4438,
      "Ġ42": 4439,
      "Ġ48": 4440,
      "Ġ2004": 4441,
      "ĠpreÅ£ul": 4442,
      "ĠÃ®mbunÄĥtÄĥÈĽi": 4443,
      "Ġmit": 4444,
      "Ġpericul": 4445,
      "Ġcelul": 4446,
      "Ġtrib": 4447,
      "aca": 4448,
      "go": 4449,
      "ust": 4450,
      "Ġ*": 4451,
      "curile": 4452,
      "Ġine": 4453,
      "delor": 4454,
      "ĠgÃ¢n": 4455,
      "ÈĽiale": 4456,
      "ĠvizeazÄĥ": 4457,
      "ĠexplicÄĥ": 4458,
      "Ġefectuat": 4459,
      "Ġmie": 4460,
      "ĠviaÈĽa": 4461,
      "ĠÃ®ntreprinde": 4462,
      "olului": 4463,
      "Ġ43": 4464,
      "Ġspatele": 4465,
      "ĠapÄĥr": 4466,
      "Ġpublica": 4467,
      "Ġstudiului": 4468,
      "Ġmandat": 4469,
      "reaza": 4470,
      "Ġ49": 4471,
      "Ġdisput": 4472,
      "Ġprocesului": 4473,
      "ĠjucÄĥtoare": 4474,
      "Ġpartenerii": 4475,
      "Ġconsecu": 4476,
      "Ġdrea": 4477,
      "ĠmasÄĥ": 4478,
      "enÈĽÄĥ": 4479,
      "Ġtu": 4480,
      "izeazÄĥ": 4481,
      "ĠcostÄĥ": 4482,
      "ÈĽionat": 4483,
      "ĠcÃ¢ÅŁtig": 4484,
      "Ġauton": 4485,
      "Ġman": 4486,
      "Ġgrupului": 4487,
      "Ġnumeroase": 4488,
      "Ġmunca": 4489,
      "cÃ¢nd": 4490,
      "mierul": 4491,
      "ÅŁtri": 4492,
      "Ġdure": 4493,
      "ĠpurtÄĥ": 4494,
      "ĠÅŁedinÅ£a": 4495,
      "Ġdumneavo": 4496,
      "Ġrefuzat": 4497,
      "Ġsecunde": 4498,
      "ĠjucÄĥtor": 4499,
      "ĠniÈĻte": 4500,
      "Ġdef": 4501,
      "Ġconst": 4502,
      "Ġmem": 4503,
      "ĠnoÈĻtri": 4504,
      "Ġatins": 4505,
      "ÈĽionarea": 4506,
      "ĠpÄĥrÄĥ": 4507,
      "Ġperioa": 4508,
      "Ġaplicat": 4509,
      "Ġsalariu": 4510,
      "Ġteleviziune": 4511,
      "Ġmijloace": 4512,
      "Ġdete": 4513,
      "Ġdefic": 4514,
      "ili": 4515,
      "Ġraportul": 4516,
      "ĠmÄĥcar": 4517,
      "Ġdublu": 4518,
      "ĠcÄĥruia": 4519,
      "ĠAnul": 4520,
      "ĠaceÅŁtia": 4521,
      "Ġactive": 4522,
      "ĠÃ®ntreg": 4523,
      "Ġdeplas": 4524,
      "Ġsituat": 4525,
      "Ġvreo": 4526,
      "Ġamericane": 4527,
      "Ġvota": 4528,
      "Ġclubului": 4529,
      "Ġconfirmat": 4530,
      "ctÄĥ": 4531,
      "ĠZ": 4532,
      "Ġintern": 4533,
      "Ġdiscuta": 4534,
      "ĠsocialÄĥ": 4535,
      "ĠstrÄĥine": 4536,
      "Ġsectorului": 4537,
      "ĠdeÅŁi": 4538,
      "ĠunicÄĥ": 4539,
      "Ġprocent": 4540,
      "Ġpublicate": 4541,
      "Ġoff": 4542,
      "Ġfabric": 4543,
      "val": 4544,
      "ÈĽinute": 4545,
      "Ġgh": 4546,
      "Ġcomporta": 4547,
      "Ġdevine": 4548,
      "amÄĥ": 4549,
      "Ġspunea": 4550,
      "ĠnaÅ£ionalÄĥ": 4551,
      "Ġbilaterale": 4552,
      "ure": 4553,
      "ĠCom": 4554,
      "Ġconect": 4555,
      "vedere": 4556,
      "Ġvala": 4557,
      "ialÄĥ": 4558,
      "Ġpartidul": 4559,
      "Ġkilogra": 4560,
      "Ġdeschiderea": 4561,
      "lande": 4562,
      "pendent": 4563,
      "ĠnÄĥscut": 4564,
      "inde": 4565,
      "Ġsh": 4566,
      "ĠVor": 4567,
      "ĠscÄĥdere": 4568,
      "Ġsocietate": 4569,
      "Ġadoptat": 4570,
      "Ġdispozitiv": 4571,
      "Ġdeterm": 4572,
      "Ġtrebuit": 4573,
      "Ġ196": 4574,
      "ĠpenalÄĥ": 4575,
      "ĠinternaÈĽional": 4576,
      "Ġsocietatea": 4577,
      "ban": 4578,
      "fon": 4579,
      "Ġtocmai": 4580,
      "Ġfaci": 4581,
      "ĠAcestea": 4582,
      "Ġgrupul": 4583,
      "Ġdosarul": 4584,
      "ĠelectricÄĥ": 4585,
      "Ġus": 4586,
      "Ġpron": 4587,
      "Ġcontul": 4588,
      "alei": 4589,
      "Ġresponsabil": 4590,
      "cro": 4591,
      "Ġordon": 4592,
      "Ġindependent": 4593,
      "ĠÈĻedinÈĽa": 4594,
      "Ġdemisia": 4595,
      "Ġapreciat": 4596,
      "gle": 4597,
      "Ġastronom": 4598,
      "ĠrÃ¢": 4599,
      "Ġcopiilor": 4600,
      "Ġlegislativ": 4601,
      "ĠacÅ£iuni": 4602,
      "book": 4603,
      "tdeauna": 4604,
      "ens": 4605,
      "Ġmobile": 4606,
      "Ġ64": 4607,
      "Ġbuna": 4608,
      "Ġcentrale": 4609,
      "ĠlucrÄĥrile": 4610,
      "Ġrestaur": 4611,
      "Ġparticul": 4612,
      "ĠÅŁtie": 4613,
      "ÈĻoarÄĥ": 4614,
      "ĠguvernÄĥ": 4615,
      "gure": 4616,
      "Ġfotb": 4617,
      "umat": 4618,
      "Ġcompara": 4619,
      "ĠorganizatÄĥ": 4620,
      "Ġtinerii": 4621,
      "ocamdatÄĥ": 4622,
      "Ġargint": 4623,
      "Ġcomand": 4624,
      "ĠÃ®ntrebat": 4625,
      "ĠtehnicÄĥ": 4626,
      "Ġreus": 4627,
      "Ġbox": 4628,
      "Ġ75": 4629,
      "umesc": 4630,
      "Ġprocente": 4631,
      "Ġpropunerea": 4632,
      "Ġmesaje": 4633,
      "Ġcontribui": 4634,
      "aturi": 4635,
      "Ġedit": 4636,
      "âĢŀ": 4637,
      "ĠDeci": 4638,
      "Ġelemente": 4639,
      "Ġrecla": 4640,
      "Ġpartidele": 4641,
      "Ġcapacitatea": 4642,
      "ĠprezintÄĥ": 4643,
      "Ġgata": 4644,
      "Ġdov": 4645,
      "Ġ65": 4646,
      "Ġsecund": 4647,
      "ĠreprezentanÅ£ii": 4648,
      "Ġcapital": 4649,
      "ĠdesfÄĥÈĻura": 4650,
      "tel": 4651,
      "arce": 4652,
      "Ġbal": 4653,
      "ctorul": 4654,
      "Ġaveau": 4655,
      "Ġsuport": 4656,
      "Ġ2007": 4657,
      "Ġetapa": 4658,
      "Ġunivers": 4659,
      "Ġjuridice": 4660,
      "Å£iunii": 4661,
      "Ġnoului": 4662,
      "eli": 4663,
      "Å£ionarea": 4664,
      "ĠmenÅ£ine": 4665,
      "Ġmodificare": 4666,
      "Ġobservat": 4667,
      "inÅ£e": 4668,
      "Ġinca": 4669,
      "Ġintelig": 4670,
      "Ġlegale": 4671,
      "pÄĥr": 4672,
      "Ġplace": 4673,
      "Ġcorespun": 4674,
      "Ġsuprave": 4675,
      "ĠjucÄĥtori": 4676,
      "Ġprofesor": 4677,
      "Ġpericol": 4678,
      "Ġinterac": 4679,
      "Ġ44": 4680,
      "ow": 4681,
      "ĠVom": 4682,
      "Ġcelei": 4683,
      "ĠsusÈĽinut": 4684,
      "Ġmix": 4685,
      "Ġdispus": 4686,
      "ĠfinanciarÄĥ": 4687,
      "Ġoficiale": 4688,
      "tine": 4689,
      "viz": 4690,
      "ĠÅ£i": 4691,
      "arh": 4692,
      "Ġlite": 4693,
      "desc": 4694,
      "Ġantrenor": 4695,
      "Ġasigurat": 4696,
      "boi": 4697,
      "ismul": 4698,
      "vidu": 4699,
      "Ġcatre": 4700,
      "tiune": 4701,
      "Ġrestul": 4702,
      "Ġurcat": 4703,
      "ĠromÃ¢nii": 4704,
      "Ġguvernament": 4705,
      "Ġmoldove": 4706,
      "ĠplÄĥtit": 4707,
      "Ġlansarea": 4708,
      "ĠcÃ¢ÈĻtigÄĥ": 4709,
      "ĠoraÈĻul": 4710,
      "ĠmÃ¢ine": 4711,
      "ĠÄĥ": 4712,
      "Ġcomb": 4713,
      "ĠprioritÄĥ": 4714,
      "ĠUr": 4715,
      "Ġindividu": 4716,
      "Ġconsolidarea": 4717,
      "Ġsetul": 4718,
      "Ġnoile": 4719,
      "Ġraionul": 4720,
      "ĠcondiÈĽii": 4721,
      "Ġconsiderat": 4722,
      "Ġefectuate": 4723,
      "Ġexerci": 4724,
      "ucÄĥ": 4725,
      "Ġrecon": 4726,
      "Ġ51": 4727,
      "Ġmedicale": 4728,
      "Ġriscu": 4729,
      "Ġpremierului": 4730,
      "Ġconvins": 4731,
      "ĠAd": 4732,
      "Ġbog": 4733,
      "Ġvorbe": 4734,
      "Ġpenale": 4735,
      "Ġcentral": 4736,
      "Ġmodelul": 4737,
      "Ġreferitoare": 4738,
      "ĠCompania": 4739,
      "argÄĥ": 4740,
      "ĠparlamentarÄĥ": 4741,
      "ĠcetÄĥÅ£enilor": 4742,
      "Ġmotor": 4743,
      "ĠdumneavoastrÄĥ": 4744,
      "ĠÂ": 4745,
      "Ġfrun": 4746,
      "iala": 4747,
      "reau": 4748,
      "Ġ47": 4749,
      "antul": 4750,
      "Ġfiu": 4751,
      "Ġvacan": 4752,
      "Ġnere": 4753,
      "Ġvalid": 4754,
      "ĠinternaÅ£ionale": 4755,
      "Ġvictoria": 4756,
      "Ġacuzat": 4757,
      "ĠmoldoveneÈĻti": 4758,
      "Ġmunicipiului": 4759,
      "Ġlegislative": 4760,
      "30": 4761,
      "Ġded": 4762,
      "Ġnoaptea": 4763,
      "ĠnoÅŁtri": 4764,
      "Ġmesajul": 4765,
      "ĠvicepreÈĻedin": 4766,
      "ĠÃ®ndeplin": 4767,
      "Ġinteriorul": 4768,
      "Ġbur": 4769,
      "Ġcab": 4770,
      "untat": 4771,
      "Ġcategorii": 4772,
      "ĠApoi": 4773,
      "Ġcibernet": 4774,
      "ĠÃ®nve": 4775,
      "ÈĽit": 4776,
      "Ġevit": 4777,
      "uala": 4778,
      "venim": 4779,
      "Ġbugetar": 4780,
      "Ġpresupune": 4781,
      "',": 4782,
      "resc": 4783,
      "ieze": 4784,
      "Ġarata": 4785,
      "atorului": 4786,
      "ĠAtunci": 4787,
      "Ġord": 4788,
      "Ġesen": 4789,
      "Ġseri": 4790,
      "ĠaceÈĻtia": 4791,
      "Ġobicei": 4792,
      "Ġcampania": 4793,
      "Ġcontracte": 4794,
      "Ġtitlu": 4795,
      "Ġfavori": 4796,
      "Ġhotare": 4797,
      "Ġent": 4798,
      "Ġunic": 4799,
      "Ġrele": 4800,
      "turii": 4801,
      "ĠdevinÄĥ": 4802,
      "ĠocupÄĥ": 4803,
      "Ġmedalii": 4804,
      "Ġrata": 4805,
      "Ġapropiat": 4806,
      "ĠÅ£ine": 4807,
      "arlament": 4808,
      "Ġarunc": 4809,
      "Ġlegat": 4810,
      "Ġschimba": 4811,
      "Ġajutor": 4812,
      "ĠÃ®ntrebÄĥri": 4813,
      "inii": 4814,
      "Ġderul": 4815,
      "ĠÅŁapte": 4816,
      "Ġbol": 4817,
      "Ġstri": 4818,
      "ĠanunÅ£": 4819,
      "ĠrelaÈĽiilor": 4820,
      "ĠpregÄĥte": 4821,
      "ĠputernicÄĥ": 4822,
      "Ġcooperare": 4823,
      "Ġparteneriat": 4824,
      "zilor": 4825,
      "Ġdemn": 4826,
      "ĠinstituÈĽii": 4827,
      "Ġcaracteri": 4828,
      "ĠdeÈĻi": 4829,
      "Ġsemne": 4830,
      "ĠcapÄĥ": 4831,
      "Ġcalea": 4832,
      "Ġcome": 4833,
      "Ġ41": 4834,
      "Ġmateriale": 4835,
      "Ġastero": 4836,
      "24": 4837,
      "ubl": 4838,
      "Ġdedic": 4839,
      "Ġment": 4840,
      "Ġeva": 4841,
      "Ġoferite": 4842,
      "Ġmerg": 4843,
      "ĠaplicaÈĽia": 4844,
      "Ġsecuritatea": 4845,
      "Ġsufle": 4846,
      "Ġcircumscrip": 4847,
      "ĠÃ®ncuraj": 4848,
      "Ġvaria": 4849,
      "Ġmodal": 4850,
      "Ġ2003": 4851,
      "ĠsfÃ¢rÈĻitul": 4852,
      "ĠreÅ£ea": 4853,
      "âĢ¦": 4854,
      "Ġstart": 4855,
      "Ġengle": 4856,
      "Ġcercetat": 4857,
      "Ġcoleg": 4858,
      "Ġsportive": 4859,
      "Ġrezolu": 4860,
      "Ġfrumos": 4861,
      "ÅŁii": 4862,
      "Ġseturi": 4863,
      "Ġfix": 4864,
      "ĠpoartÄĥ": 4865,
      "Ġnec": 4866,
      "Ġinvestiga": 4867,
      "Ġfirma": 4868,
      "Ġplanetei": 4869,
      "ĠluatÄĥ": 4870,
      "Ġate": 4871,
      "Ġputerea": 4872,
      "ĠasigurÄĥri": 4873,
      "ĠÃ®ngrijor": 4874,
      "sih": 4875,
      "Ġapare": 4876,
      "torului": 4877,
      "ĠintrÄĥ": 4878,
      "Ġprograme": 4879,
      "ĠpiaÈĽÄĥ": 4880,
      "Ġcontrolul": 4881,
      "ĠsusÈĽinerea": 4882,
      "ĠcumpÄĥrÄĥ": 4883,
      "Ġconstatat": 4884,
      "fi": 4885,
      "Ġcombate": 4886,
      "Ġacte": 4887,
      "Ġadj": 4888,
      "Ġelev": 4889,
      "Ġtempor": 4890,
      "Ġexclusiv": 4891,
      "Ġsat": 4892,
      "Ġomului": 4893,
      "Ġtend": 4894,
      "Ġconformitate": 4895,
      "ĠlÄĥsat": 4896,
      "Ġpronun": 4897,
      "mare": 4898,
      "Ġvar": 4899,
      "ĠCÃ¢nd": 4900,
      "Ġcari": 4901,
      "Ġfaza": 4902,
      "ĠmiÅŁ": 4903,
      "ĠdezvoltÄĥrii": 4904,
      "Ġdrepturilor": 4905,
      "Ġinvita": 4906,
      "Ġzonele": 4907,
      "Ġsuportul": 4908,
      "iti": 4909,
      "ÅŁÄĥ": 4910,
      "Ġrem": 4911,
      "Ġbenz": 4912,
      "Ġgo": 4913,
      "Ġnews": 4914,
      "Ġcoali": 4915,
      "ĠÃ®ntÃ¢lni": 4916,
      "Ġevenimentului": 4917,
      "Ġtarife": 4918,
      "Ġmal": 4919,
      "ĠÅŁo": 4920,
      "Ġtitl": 4921,
      "Ġmoneda": 4922,
      "lect": 4923,
      "Ġlog": 4924,
      "amb": 4925,
      "ĠinstituÈĽiile": 4926,
      "Ġvinde": 4927,
      "Ġprofil": 4928,
      "ÈĽialÄĥ": 4929,
      "Ġmagazine": 4930,
      "20": 4931,
      "oul": 4932,
      "terii": 4933,
      "rici": 4934,
      "Å£inute": 4935,
      "Ġspani": 4936,
      "Ġfaptului": 4937,
      "Ġcandidatul": 4938,
      "Ġreferendumul": 4939,
      "anului": 4940,
      "Ġconstruit": 4941,
      "ĠmÄĥsurile": 4942,
      "Ġclient": 4943,
      "Ġdeschide": 4944,
      "Ġmuze": 4945,
      "clara": 4946,
      "Ġbrows": 4947,
      "reme": 4948,
      "pele": 4949,
      "ĠmarÈĽi": 4950,
      "ĠÈĻase": 4951,
      "cursul": 4952,
      "mÄĥnÄĥ": 4953,
      "ĠinstituÅ£ii": 4954,
      "Ġanaliza": 4955,
      "gare": 4956,
      "Ġcentru": 4957,
      "tÄĥtorii": 4958,
      "Ġgame": 4959,
      "Ġaspect": 4960,
      "ĠÈĻtiu": 4961,
      "Ġplaneta": 4962,
      "Ġdosar": 4963,
      "Ġindustri": 4964,
      "ftin": 4965,
      "Ġnomin": 4966,
      "Ġsex": 4967,
      "ptÄĥm": 4968,
      "amentului": 4969,
      "Ġ250": 4970,
      "Ġimplica": 4971,
      "Ġsupraveghe": 4972,
      "Ġpropor": 4973,
      "aspe": 4974,
      "amnÄĥ": 4975,
      "Ġ46": 4976,
      "Ġuti": 4977,
      "Ġmedii": 4978,
      "ĠromÃ¢nilor": 4979,
      "Ġsensul": 4980,
      "ĠautoritÄĥÈĽilor": 4981,
      "Ġmajorarea": 4982,
      "ĠmuzicÄĥ": 4983,
      "Ġdesign": 4984,
      "Ġcucerit": 4985,
      "bila": 4986,
      "Ġefecte": 4987,
      "scrie": 4988,
      "Ġcod": 4989,
      "Ġmagist": 4990,
      "Ġautoht": 4991,
      "Ġpoveste": 4992,
      "Ġrezisten": 4993,
      "Ġfrec": 4994,
      "Ġdinam": 4995,
      "Ġimpozi": 4996,
      "ĠgreÅŁ": 4997,
      "ĠstrÄĥini": 4998,
      "ĠangajaÅ£i": 4999,
      "ormele": 5000,
      "Ġfu": 5001,
      "Ġnemul": 5002,
      "Ġamend": 5003,
      "Ġcontinuat": 5004,
      "Ġspecialist": 5005,
      "ĠreuÅŁ": 5006,
      "Ġbugetului": 5007,
      "Ġrecunoscut": 5008,
      "Ġmoldovean": 5009,
      "Ġier": 5010,
      "Ġpere": 5011,
      "ĠMul": 5012,
      "Ġmingea": 5013,
      "ĠspecialÄĥ": 5014,
      "ĠsiguranÅ£Äĥ": 5015,
      "ĠjoacÄĥ": 5016,
      "Ġdiminu": 5017,
      "data": 5018,
      "ple": 5019,
      "Ġflu": 5020,
      "Ġomul": 5021,
      "ĠpoÅ£i": 5022,
      "ĠromÃ¢neascÄĥ": 5023,
      "Ġexprim": 5024,
      "ĠÃ®ntÃ¢lnit": 5025,
      "Ġstatele": 5026,
      "ĠadoptatÄĥ": 5027,
      "Ġvolumul": 5028,
      "rucÃ¢t": 5029,
      "turilor": 5030,
      "itudin": 5031,
      "ĠvarÄĥ": 5032,
      "iascÄĥ": 5033,
      "ĠMo": 5034,
      "ĠafarÄĥ": 5035,
      "Ġcontribuabil": 5036,
      "Ġordine": 5037,
      "Ġbas": 5038,
      "Ġexistat": 5039,
      "Ġcreate": 5040,
      "itÄĥÅ£ilor": 5041,
      "ĠÃ®ntÃ¢r": 5042,
      "Ġreprezenta": 5043,
      "Ġobiecte": 5044,
      "ĠcercetÄĥtori": 5045,
      "Ġvalorile": 5046,
      "ĠdezvÄĥlu": 5047,
      "ou": 5048,
      "ĠÐ": 5049,
      "Ġinsul": 5050,
      "Ġcota": 5051,
      "Ġlimite": 5052,
      "Ġmunicip": 5053,
      "Ġhi": 5054,
      "ĠconducÄĥ": 5055,
      "cÄĥm": 5056,
      "Ġrespin": 5057,
      "ĠÃ®naintea": 5058,
      "Ġsemifinale": 5059,
      "cre": 5060,
      "Ġand": 5061,
      "Ġnoapte": 5062,
      "ĠminiÅŁ": 5063,
      "oarele": 5064,
      "alizare": 5065,
      "Ġieftin": 5066,
      "Ġacuza": 5067,
      "Ġanimale": 5068,
      "acul": 5069,
      "gate": 5070,
      "Ġran": 5071,
      "Ġcarte": 5072,
      "ĠvadÄĥ": 5073,
      "dep": 5074,
      "Ġdif": 5075,
      "ĠspecialiÈĻti": 5076,
      "Ġautomat": 5077,
      "Ġspecific": 5078,
      "Ġincer": 5079,
      "Ġatat": 5080,
      "Ġzil": 5081,
      "Ġsenz": 5082,
      "Ġimagine": 5083,
      "Ġpsih": 5084,
      "Ġ700": 5085,
      "Ġcolegi": 5086,
      "Ġtehnologia": 5087,
      "Ġaccele": 5088,
      "Ġdrumul": 5089,
      "zutÄĥ": 5090,
      "reascÄĥ": 5091,
      "ĠpunÄĥ": 5092,
      "ard": 5093,
      "ĠSun": 5094,
      "sco": 5095,
      "Ġ54": 5096,
      "Ġbanca": 5097,
      "Ġelim": 5098,
      "ologii": 5099,
      "Ġfolosesc": 5100,
      "Ġsubiecte": 5101,
      "ĠurgenÅ£Äĥ": 5102,
      "lei": 5103,
      "Ġinregist": 5104,
      "easca": 5105,
      "Ġorgane": 5106,
      "Ġreferire": 5107,
      "Ġsondaj": 5108,
      "De": 5109,
      "Ġinst": 5110,
      "Ġpoe": 5111,
      "Ġjap": 5112,
      "ĠÃ®nso": 5113,
      "Ġfolose": 5114,
      "agÄĥ": 5115,
      "ĠcÄĥsÄĥ": 5116,
      "izÄĥrii": 5117,
      "ĠVa": 5118,
      "icole": 5119,
      "Ġumane": 5120,
      "Ġocup": 5121,
      "Ġintegri": 5122,
      "Ġpozitiv": 5123,
      "Ġcomunicare": 5124,
      "ĠEchipa": 5125,
      "Ġbrowser": 5126,
      "ierilor": 5127,
      "Ġinim": 5128,
      "Ġstarea": 5129,
      "Ġviru": 5130,
      "Ġpartidei": 5131,
      "Ġplen": 5132,
      "Ġfotbalist": 5133,
      "Ġ&": 5134,
      "Ġbule": 5135,
      "ĠVÄĥ": 5136,
      "ĠstÃ¢n": 5137,
      "Ġperfect": 5138,
      "ĠÃ®ntor": 5139,
      "Ġimpune": 5140,
      "Ġpublicului": 5141,
      "ĠcondusÄĥ": 5142,
      "ĠrÄĥzboi": 5143,
      "Ġpal": 5144,
      "ealÄĥ": 5145,
      "ĠfiecÄĥ": 5146,
      "Ġconducere": 5147,
      "ĠacÈĽiunile": 5148,
      "Ġsportivi": 5149,
      "pod": 5150,
      "Ġteste": 5151,
      "Ġpostat": 5152,
      "Ġzbor": 5153,
      "Ġevoluat": 5154,
      "Ġucraine": 5155,
      "lori": 5156,
      "Ġofere": 5157,
      "Ġmei": 5158,
      "ĠajutÄĥ": 5159,
      "terioare": 5160,
      "Ġaero": 5161,
      "tier": 5162,
      "Ġup": 5163,
      "Ġdorim": 5164,
      "ĠdecÃ®t": 5165,
      "Ġaviz": 5166,
      "Ġopri": 5167,
      "Ġsursa": 5168,
      "Ġexamin": 5169,
      "Ġcariera": 5170,
      "Ġserio": 5171,
      "tamp": 5172,
      "ĠlucrÄĥrilor": 5173,
      "Ġvolum": 5174,
      "ĠpÄĥrere": 5175,
      "ld": 5176,
      "Ġstil": 5177,
      "Ġguvernul": 5178,
      "ĠÈĽÄĥrile": 5179,
      "ĠanalizÄĥ": 5180,
      "Ġspectacul": 5181,
      "Ġantreprenori": 5182,
      "eam": 5183,
      "izeze": 5184,
      "Ġextern": 5185,
      "ĠÃ®ntÃ®": 5186,
      "Ġafis": 5187,
      "Ġprevederile": 5188,
      "Ġsingurul": 5189,
      "strul": 5190,
      "ĠMi": 5191,
      "ĠspunÄĥ": 5192,
      "ĠFie": 5193,
      "Ġ56": 5194,
      "Ġ57": 5195,
      "Ġprivate": 5196,
      "ĠuÈĻor": 5197,
      "Ġ800": 5198,
      "Ġantrenorul": 5199,
      "Ġvit": 5200,
      "Ġcaf": 5201,
      "Ġcasa": 5202,
      "ĠpreÈĽul": 5203,
      "icile": 5204,
      "Ġstrat": 5205,
      "ida": 5206,
      "mintim": 5207,
      "ĠurmÄĥtorii": 5208,
      "Ġcertific": 5209,
      "Ġdiscur": 5210,
      "Ġdosare": 5211,
      "laltÄĥ": 5212,
      "ocu": 5213,
      "Ġcro": 5214,
      "Ġsimb": 5215,
      "Ġdoamna": 5216,
      "Ġafl": 5217,
      "ĠDeclara": 5218,
      "ospod": 5219,
      "Ġincre": 5220,
      "Ġferic": 5221,
      "Ġafirma": 5222,
      "Ġchim": 5223,
      "Ġluate": 5224,
      "Ġdeosebit": 5225,
      "Ġfrancez": 5226,
      "Ġgratuit": 5227,
      "Ġhect": 5228,
      "cului": 5229,
      "itoare": 5230,
      "Ġrelu": 5231,
      "tivul": 5232,
      "Ġlunar": 5233,
      "Ġpersona": 5234,
      "Ġtotalul": 5235,
      "ĠÃ®ncad": 5236,
      "Ġterenul": 5237,
      "Ġamenin": 5238,
      "Ġeforturile": 5239,
      "cinÄĥ": 5240,
      "Ġspate": 5241,
      "Ġmele": 5242,
      "Ġpoarta": 5243,
      "Ġscos": 5244,
      "ĠtotodatÄĥ": 5245,
      "chii": 5246,
      "Ġmascul": 5247,
      "Å£ialÄĥ": 5248,
      "ĠÃ®ncÄĥlzi": 5249,
      "ĠnumÄĥrului": 5250,
      "Ġdreapta": 5251,
      "itudine": 5252,
      "Ġconstan": 5253,
      "Ġgas": 5254,
      "Ġatrac": 5255,
      "Ġ52": 5256,
      "Ġdemers": 5257,
      "Ġdistribu": 5258,
      "Ġcheltuielile": 5259,
      "Ġinau": 5260,
      "Ġaltern": 5261,
      "Ġstau": 5262,
      "Ġocupa": 5263,
      "ĠDoar": 5264,
      "hidro": 5265,
      "ĠconfruntÄĥ": 5266,
      "ĠregÄĥ": 5267,
      "Ġpostul": 5268,
      "ĠnumÄĥrÄĥ": 5269,
      "Ġindice": 5270,
      "ĠexperienÈĽÄĥ": 5271,
      "iÈĻ": 5272,
      "prim": 5273,
      "Ġdeloc": 5274,
      "usÄĥ": 5275,
      "Ġbru": 5276,
      "Ġsuge": 5277,
      "itala": 5278,
      "Ġadoptate": 5279,
      "Ġascul": 5280,
      "Ġcontribuie": 5281,
      "Ġcastigat": 5282,
      "Ġpreveni": 5283,
      "ĠstradÄĥ": 5284,
      "Ġautoturis": 5285,
      "cle": 5286,
      "garea": 5287,
      "onat": 5288,
      "Ġrevol": 5289,
      "ama": 5290,
      "inei": 5291,
      "Ġext": 5292,
      "inirea": 5293,
      "Ġveniturilor": 5294,
      "ĠÃ®ncerca": 5295,
      "ĠpoziÅ£ia": 5296,
      "ĠÃ®ncrederea": 5297,
      "ĠbÄĥrba": 5298,
      "itor": 5299,
      "Ġbrut": 5300,
      "Ġipo": 5301,
      "Ġstatist": 5302,
      "Ġschimbare": 5303,
      "Ġterminat": 5304,
      "ĠgÄĥz": 5305,
      "ĠinternaÅ£ional": 5306,
      "Ġscoate": 5307,
      "Ġzero": 5308,
      "Ġexclu": 5309,
      "Ġeliminarea": 5310,
      "ĠprevÄĥzute": 5311,
      "Ġmunicipiul": 5312,
      "Ġimpresion": 5313,
      "Ġretur": 5314,
      "ĠspÄĥ": 5315,
      "Ġpersoana": 5316,
      "Ġtrase": 5317,
      "Ġcredite": 5318,
      "Ġevaluare": 5319,
      "Ġoce": 5320,
      "Ġmarginea": 5321,
      "ĠinstituÈĽiilor": 5322,
      "Ġfelic": 5323,
      "Ġrepara": 5324,
      "Ġstructura": 5325,
      "Ġreformelor": 5326,
      "Ġfeminin": 5327,
      "vent": 5328,
      "Ġstic": 5329,
      "ĠPoti": 5330,
      "liere": 5331,
      "itÄĥm": 5332,
      "Ġasigure": 5333,
      "Ġdecide": 5334,
      "Ġsoft": 5335,
      "ĠdeschisÄĥ": 5336,
      "Ġsemnificativ": 5337,
      "larea": 5338,
      "Ġtrad": 5339,
      "ĠcomunÄĥ": 5340,
      "ĠmeargÄĥ": 5341,
      "ĠVe": 5342,
      "Ġjudici": 5343,
      "Ġlucra": 5344,
      "Ġ2006": 5345,
      "Ġceremon": 5346,
      "Ġplanific": 5347,
      "Ġprimei": 5348,
      "ĠpotenÈĽial": 5349,
      "ical": 5350,
      "Ġprevederilor": 5351,
      "ĠÃ®ndemn": 5352,
      "Ġparcurs": 5353,
      "ĠlucrÄĥri": 5354,
      "Ġautostrad": 5355,
      "adar": 5356,
      "ĠÃ®ntrucÃ¢t": 5357,
      "Ġvest": 5358,
      "Ġutilizarea": 5359,
      "Ġfilme": 5360,
      "ĠsocietÄĥÈĽii": 5361,
      "Ġobiective": 5362,
      "Ġprieteni": 5363,
      "Ġefor": 5364,
      "ĠUlterior": 5365,
      "rest": 5366,
      "Ġgospod": 5367,
      "ticip": 5368,
      "Ġiau": 5369,
      "ĠÃ®naltÄĥ": 5370,
      "Ġdurata": 5371,
      "Ġcontinutul": 5372,
      "ĠmÃ¢na": 5373,
      "Ġciuda": 5374,
      "Ġrepl": 5375,
      "Ġperi": 5376,
      "ĠAici": 5377,
      "Ġ58": 5378,
      "Ġlegile": 5379,
      "Ġuz": 5380,
      "Ġstabilirea": 5381,
      "ĠÅ£Äĥrile": 5382,
      "Ġexperiment": 5383,
      "Ġlimita": 5384,
      "nt": 5385,
      "Åŀ": 5386,
      "ĠÃ®Å£i": 5387,
      "Ġune": 5388,
      "zÄĥtor": 5389,
      "Ġnop": 5390,
      "Ġnegat": 5391,
      "Ġcontrac": 5392,
      "ĠmenÈĽine": 5393,
      "ĠluminÄĥ": 5394,
      "Ġtehnice": 5395,
      "ĠsimilarÄĥ": 5396,
      "Ġasocia": 5397,
      "Ġdepre": 5398,
      "Ġvizita": 5399,
      "Ġporto": 5400,
      "ĠdesfÄĥÈĻurat": 5401,
      "Ġaplicare": 5402,
      "Ġselect": 5403,
      "Ġactualiza": 5404,
      "asca": 5405,
      "Ġaduc": 5406,
      "Ġcomunica": 5407,
      "Ġnecesitatea": 5408,
      "Ġrespective": 5409,
      "Ġplay": 5410,
      "Ġfondul": 5411,
      "Ġocupat": 5412,
      "Ġfructe": 5413,
      "ĠvÃ¢ndut": 5414,
      "Ġatinge": 5415,
      "cÄĥrile": 5416,
      "tarii": 5417,
      "Ġstabilite": 5418,
      "Ġactualul": 5419,
      "ĠinfrastructurÄĥ": 5420,
      "Ġaspecte": 5421,
      "deze": 5422,
      "ĠcitatÄĥ": 5423,
      "Ġresurse": 5424,
      "ĠSuntem": 5425,
      "rona": 5426,
      "Ġsatul": 5427,
      "ĠAÅŁa": 5428,
      "cile": 5429,
      "Ġdesf": 5430,
      "ĠinvestiÈĽiilor": 5431,
      "ĠsituaÅ£ie": 5432,
      "ĠaÅŁteaptÄĥ": 5433,
      "ĠÃ®ntÃ¢lnire": 5434,
      "Ġdetermin": 5435,
      "Ġimaginile": 5436,
      "ĠRea": 5437,
      "Ġlegit": 5438,
      "alizarea": 5439,
      "ologic": 5440,
      "Ġsimt": 5441,
      "Ġschimbarea": 5442,
      "ĠrealizatÄĥ": 5443,
      "ĠmodificÄĥrile": 5444,
      "ĠreprezentanÈĽi": 5445,
      "ĠsecuritÄĥÈĽii": 5446,
      "Ġintensific": 5447,
      "ĠplatformÄĥ": 5448,
      "amentelor": 5449,
      "ĠcetÄĥÅ£enii": 5450,
      "Ġpermanent": 5451,
      "ĠcÄĥut": 5452,
      "Ġiub": 5453,
      "ismului": 5454,
      "onez": 5455,
      "Ġscru": 5456,
      "Ġaler": 5457,
      "Ġintrarea": 5458,
      "Ġsectiune": 5459,
      "Ġrespectarea": 5460,
      "Ġaplicarea": 5461,
      "Ġmiting": 5462,
      "itatÄĥ": 5463,
      "Ġseg": 5464,
      "âĢľ": 5465,
      "Ġposibile": 5466,
      "Ġechiva": 5467,
      "Ġgreutate": 5468,
      "Ġremarcat": 5469,
      "Ġaccepti": 5470,
      "Ġurilor": 5471,
      "Ġdestina": 5472,
      "Ġaltul": 5473,
      "Ġgig": 5474,
      "ĠÃ®ntrevedere": 5475,
      "Ġelectric": 5476,
      "Ġrezerv": 5477,
      "Ġmodulelor": 5478,
      "ĠmaÅŁinÄĥ": 5479,
      "Ġpartidelor": 5480,
      "Ġinfrastructurii": 5481,
      "Ġreferendumului": 5482,
      "Ġfrac": 5483,
      "Ġsetarile": 5484,
      "Ġbar": 5485,
      "urare": 5486,
      "ibe": 5487,
      "ĠtoamnÄĥ": 5488,
      "Ġmacro": 5489,
      "Ġviata": 5490,
      "ĠmiÈĻ": 5491,
      "Ġdeschise": 5492,
      "Ġjocul": 5493,
      "Ġplanete": 5494,
      "Ġmaxime": 5495,
      "gh": 5496,
      "tut": 5497,
      "Ġcite": 5498,
      "Ġgrave": 5499,
      "Ġcapitalei": 5500,
      "Ġhotel": 5501,
      "ĠridicÄĥ": 5502,
      "Ġcuprinse": 5503,
      "Ġconsilier": 5504,
      "Ġriscul": 5505,
      "Ġfotografii": 5506,
      "Ġordinea": 5507,
      "ĠalegÄĥtori": 5508,
      "ĠplÄĥteascÄĥ": 5509,
      "okie": 5510,
      "ĠprÄĥ": 5511,
      "Ġanilor": 5512,
      "Ġgal": 5513,
      "Ġnucle": 5514,
      "ĠplatÄĥ": 5515,
      "Ġbancare": 5516,
      "Ġ72": 5517,
      "ĠdiscuÈĽii": 5518,
      "Ġacordate": 5519,
      "Ġtehnologii": 5520,
      "Ġconstituit": 5521,
      "Ġratat": 5522,
      "Ġcontact": 5523,
      "Ġevident": 5524,
      "Ġoptimi": 5525,
      "dare": 5526,
      "ĠSursa": 5527,
      "Ġtrecute": 5528,
      "Ġcredin": 5529,
      "nera": 5530,
      "Ġpropria": 5531,
      "ionalÄĥ": 5532,
      "Ġliderii": 5533,
      "Ġcapitala": 5534,
      "Ġdistin": 5535,
      "Ġcoookie": 5536,
      "ĠpracticÄĥ": 5537,
      "ĠmaximÄĥ": 5538,
      "ĠfinanÈĽare": 5539,
      "Ġafisarea": 5540,
      "Äĥn": 5541,
      "ĠcreascÄĥ": 5542,
      "Ġ63": 5543,
      "Ġsolid": 5544,
      "voarea": 5545,
      "Ġcance": 5546,
      "Ġparticipe": 5547,
      "Ġcheie": 5548,
      "ĠsoluÅ£ii": 5549,
      "Ġmonum": 5550,
      "Ġpostare": 5551,
      "ĠediÈĽie": 5552,
      "Ġocazie": 5553,
      "Ġexistente": 5554,
      "ĠÃ®ntotdeauna": 5555,
      "Ġsatel": 5556,
      "Ġfrontie": 5557,
      "no": 5558,
      "Ġduc": 5559,
      "Ġpuse": 5560,
      "ĠactivitÄĥÈĽii": 5561,
      "Ġclasa": 5562,
      "Ġdevreme": 5563,
      "ĠÈĻedinÈĽÄĥ": 5564,
      "cizia": 5565,
      "Ġ}": 5566,
      "Ġreforma": 5567,
      "vehicul": 5568,
      "Ġdeclan": 5569,
      "Ġcosta": 5570,
      "ĠÈĻapte": 5571,
      "Ġmajore": 5572,
      "apoi": 5573,
      "ĠprocedurÄĥ": 5574,
      "ĠprezenÅ£a": 5575,
      "Ġmuncii": 5576,
      "oreazÄĥ": 5577,
      "Ġ{": 5578,
      "Ġcic": 5579,
      "ĠalÅ£i": 5580,
      "ptul": 5581,
      "Ġ67": 5582,
      "Ġtimpului": 5583,
      "ĠdiscuÅ£ie": 5584,
      "Ġautoriza": 5585,
      "Ġputernice": 5586,
      "Ġagenda": 5587,
      "Ġtemperaturile": 5588,
      "Ġafectate": 5589,
      "ĠPrima": 5590,
      "nuit": 5591,
      "Ġcenz": 5592,
      "Ġfunda": 5593,
      "ÈĻii": 5594,
      "Ġtara": 5595,
      "Ġrece": 5596,
      "Ġprile": 5597,
      "Ġ61": 5598,
      "Ġdrepturile": 5599,
      "Ġacordarea": 5600,
      "ĠsiguranÈĽÄĥ": 5601,
      "Ġmaterial": 5602,
      "Ġmanage": 5603,
      "Ġmagazin": 5604,
      "rez": 5605,
      "rice": 5606,
      "arate": 5607,
      "Ġlabor": 5608,
      "Ġconstitui": 5609,
      "ses": 5610,
      "sedin": 5611,
      "Ġpublicul": 5612,
      "Ġmandatul": 5613,
      "ĠÃ®mprumut": 5614,
      "Ġrobot": 5615,
      "Ġautonom": 5616,
      "gatÄĥ": 5617,
      "nei": 5618,
      "suri": 5619,
      "Ġ66": 5620,
      "Ġmilit": 5621,
      "ĠmÄĥri": 5622,
      "Ġorigin": 5623,
      "Ġundeva": 5624,
      "Ġscrisoare": 5625,
      "Ġreglementare": 5626,
      "Ġvulnera": 5627,
      "cter": 5628,
      "ude": 5629,
      "Ġsent": 5630,
      "anÈĽii": 5631,
      "Ġbrand": 5632,
      "amp": 5633,
      "Ġiu": 5634,
      "ĠamÃ¢n": 5635,
      "ĠcÃ¢Å£i": 5636,
      "ĠfuncÅ£ii": 5637,
      "ĠrusÄĥ": 5638,
      "Ġpremii": 5639,
      "Ġautovehicul": 5640,
      "Ġretragerea": 5641,
      "Ġinstrument": 5642,
      "Ġridicate": 5643,
      "Ġscrutin": 5644,
      "nice": 5645,
      "Ġhidro": 5646,
      "ĠcÃ®t": 5647,
      "Ġpresei": 5648,
      "Ġregiz": 5649,
      "ĠÃ®mpie": 5650,
      "Ġclasat": 5651,
      "Ġimplicat": 5652,
      "ĠrÄĥmÃ¢nÄĥ": 5653,
      "Ġplatforma": 5654,
      "ĠÈĻedinÈĽei": 5655,
      "Ġcuvinte": 5656,
      "Ġfostului": 5657,
      "ĠsusÈĽin": 5658,
      "uvernul": 5659,
      "Ġobserva": 5660,
      "ĠfizicÄĥ": 5661,
      "Ġcaracter": 5662,
      "ĠÃ®nchisoare": 5663,
      "ĠÃİntrebat": 5664,
      "Ġimposibil": 5665,
      "Ġreusit": 5666,
      "ĠcarierÄĥ": 5667,
      "ĠdeÅ£ine": 5668,
      "ÅŁul": 5669,
      "Ġdepuse": 5670,
      "ĠtotuÅŁi": 5671,
      "ĠÃ®mplin": 5672,
      "Ġdubl": 5673,
      "Ġproteste": 5674,
      "Ġpasi": 5675,
      "Ġacceptat": 5676,
      "ĠangajaÈĽi": 5677,
      "Ġsublin": 5678,
      "Ġdesemnat": 5679,
      "ck": 5680,
      "sticÄĥ": 5681,
      "cere": 5682,
      "Ġrelat": 5683,
      "Ġnoilor": 5684,
      "onala": 5685,
      "ligen": 5686,
      "ĠdistanÅ£Äĥ": 5687,
      "Ġdrumuri": 5688,
      "Ġilegal": 5689,
      "Ġdic": 5690,
      "ribui": 5691,
      "ĠÃ®nÄĥ": 5692,
      "Ġreite": 5693,
      "ĠsperÄĥ": 5694,
      "ĠÈĻtie": 5695,
      "Ġpatrim": 5696,
      "ĠaplicÄĥ": 5697,
      "ĠpregÄĥtit": 5698,
      "Ġmaterie": 5699,
      "Ġintervalul": 5700,
      "Ġdovedit": 5701,
      "ĠspaÅ£iu": 5702,
      "Ġspital": 5703,
      "colo": 5704,
      "mana": 5705,
      "Ġsume": 5706,
      "imente": 5707,
      "Ġcompo": 5708,
      "Ġ53": 5709,
      "Ġreprezentant": 5710,
      "Ġsurpri": 5711,
      "ĠÅŁtiin": 5712,
      "Ġmandatului": 5713,
      "Ġnatural": 5714,
      "Ġinvitat": 5715,
      "ĠÃ®mbunÄĥtÄĥÅ£i": 5716,
      "Ġtrupe": 5717,
      "Ġdisponibil": 5718,
      "ĠadaugÄĥ": 5719,
      "ĠmÄĥrfuri": 5720,
      "Ġpon": 5721,
      "ÈĻtin": 5722,
      "Ġlice": 5723,
      "ÈĽionare": 5724,
      "rioarÄĥ": 5725,
      "ĠcealaltÄĥ": 5726,
      "Ġcomuna": 5727,
      "ĠpartidÄĥ": 5728,
      "ĠanunÈĽ": 5729,
      "ĠanunÅ£Äĥ": 5730,
      "Ġpatron": 5731,
      "Ġsitu": 5732,
      "leazÄĥ": 5733,
      "Ġistoric": 5734,
      "Ġalimentare": 5735,
      "Ġcondamnat": 5736,
      "ÅŁtin": 5737,
      "Ġlarg": 5738,
      "Ġidei": 5739,
      "mei": 5740,
      "Ġminime": 5741,
      "ĠdispÄĥ": 5742,
      "Ġdirecte": 5743,
      "ĠschimbÄĥri": 5744,
      "Ġdispon": 5745,
      "Ġcerere": 5746,
      "ĠatenÅ£ia": 5747,
      "Ġnormativ": 5748,
      "Ġsalv": 5749,
      "Ġfraud": 5750,
      "ĠmaÈĻini": 5751,
      "ĠSper": 5752,
      "Ġsuperi": 5753,
      "spi": 5754,
      "ĠrelaÈĽiile": 5755,
      "ĠactualÄĥ": 5756,
      "Ġcateva": 5757,
      "ĠadevÄĥr": 5758,
      "Ġperforman": 5759,
      "Ġdenum": 5760,
      "Ġpreluat": 5761,
      "ĠcÃ®te": 5762,
      "ĠexternÄĥ": 5763,
      "Ġdomnului": 5764,
      "Ġdifuz": 5765,
      "rem": 5766,
      "Ġpicio": 5767,
      "ĠEvenim": 5768,
      "pecial": 5769,
      "Ġpolu": 5770,
      "Ġinteresele": 5771,
      "ĠanchetÄĥ": 5772,
      "Ġlocuitorii": 5773,
      "Ġanalizat": 5774,
      "Ġfinele": 5775,
      "Ġconvoc": 5776,
      "ĠlungÄĥ": 5777,
      "Ġ73": 5778,
      "Ġsemnal": 5779,
      "Ġconchis": 5780,
      "Ġadev": 5781,
      "Ġfurt": 5782,
      "Ġcivile": 5783,
      "Ġcamere": 5784,
      "ĠSpre": 5785,
      "umin": 5786,
      "ĠnoteazÄĥ": 5787,
      "ilal": 5788,
      "Ġdisputa": 5789,
      "Ġonoare": 5790,
      "ĠsoluÈĽii": 5791,
      "Ġcheltuieli": 5792,
      "ĠoraÅŁul": 5793,
      "Ġintroducerea": 5794,
      "batul": 5795,
      "date": 5796,
      "Ġaferen": 5797,
      "Ġarm": 5798,
      "ĠpoÈĽi": 5799,
      "ĠDespre": 5800,
      "ĠdiscuÅ£ii": 5801,
      "Ġtehnic": 5802,
      "Ġjocuri": 5803,
      "Ġcategorie": 5804,
      "Ġrezolv": 5805,
      "ĠdeputaÈĽi": 5806,
      "Ġnoroc": 5807,
      "Ġghea": 5808,
      "Ġcreier": 5809,
      "Ġaduse": 5810,
      "Ġ59": 5811,
      "Ġmarca": 5812,
      "Ġdatorii": 5813,
      "Ġporn": 5814,
      "Ġmajorat": 5815,
      "Ġartificial": 5816,
      "ograf": 5817,
      "ĠcumpÄĥrat": 5818,
      "Ġcomponente": 5819,
      "Ġdetect": 5820,
      "sate": 5821,
      "Ġâ": 5822,
      "Ġclari": 5823,
      "orat": 5824,
      "stei": 5825,
      "Ġpresiune": 5826,
      "Ġ62": 5827,
      "Ġelve": 5828,
      "ĠieÅŁi": 5829,
      "Ġenergia": 5830,
      "Ġenergiei": 5831,
      "Ġmedalia": 5832,
      "Ġpropriul": 5833,
      "ĠfrumoasÄĥ": 5834,
      "ĠcapÄĥt": 5835,
      "dia": 5836,
      "ĠdeocamdatÄĥ": 5837,
      "Ġvara": 5838,
      "ceva": 5839,
      "tabil": 5840,
      "Ġarhe": 5841,
      "ĠPoate": 5842,
      "Ġcobor": 5843,
      "Ġ69": 5844,
      "ĠÈĻco": 5845,
      "ĠactiveazÄĥ": 5846,
      "ĠanunÈĽÄĥ": 5847,
      "Ġsisteme": 5848,
      "Ġagric": 5849,
      "Ġpatra": 5850,
      "Ġmunce": 5851,
      "Ġplafon": 5852,
      "Ġevolua": 5853,
      "Ġtermenul": 5854,
      "Ġnegativ": 5855,
      "ĠlistÄĥ": 5856,
      "Ġreferin": 5857,
      "ĠNici": 5858,
      "Ġsche": 5859,
      "ptate": 5860,
      "Ġferici": 5861,
      "acebook": 5862,
      "ĠÃ®ntÃ¢i": 5863,
      "Ġmunte": 5864,
      "ĠmÄĥsura": 5865,
      "Ġrepro": 5866,
      "Ġfirmele": 5867,
      "Ġorele": 5868,
      "Ġclubul": 5869,
      "ĠsimplÄĥ": 5870,
      "Ġdedicat": 5871,
      "Ġconduc": 5872,
      "Ġplin": 5873,
      "Ġstatutul": 5874,
      "Å£ionare": 5875,
      "ionat": 5876,
      "Ġvorbesc": 5877,
      "ĠdesfÄĥÈĻoarÄĥ": 5878,
      "ĠrespectivÄĥ": 5879,
      "Ġsimilare": 5880,
      "Ġdomeniile": 5881,
      "Ġprelungi": 5882,
      "Ġdurat": 5883,
      "Ã¢ntul": 5884,
      "Ġrache": 5885,
      "Ġorient": 5886,
      "Ġmomente": 5887,
      "ĠÃ®nregistra": 5888,
      "ĠjustiÈĽiei": 5889,
      "Ġapropierea": 5890,
      "Ġtare": 5891,
      "Ġtric": 5892,
      "Ġrede": 5893,
      "Ġpropa": 5894,
      "Ġfavoarea": 5895,
      "odatÄĥ": 5896,
      "ĠprimÄĥv": 5897,
      "Ġspaniol": 5898,
      "ĠÅŁco": 5899,
      "Ġprej": 5900,
      "ĠDecizia": 5901,
      "Ġrutier": 5902,
      "Ġdeciziile": 5903,
      "Ġparlamentar": 5904,
      "Ġrevista": 5905,
      "Ġajutat": 5906,
      "ĠproducÅ£ie": 5907,
      "Ġeliminat": 5908,
      "Ġbritanic": 5909,
      "ĠenergeticÄĥ": 5910,
      "In": 5911,
      "jele": 5912,
      "trii": 5913,
      "ĠzÄĥ": 5914,
      "rui": 5915,
      "Ġdepla": 5916,
      "versa": 5917,
      "Ġprogramat": 5918,
      "Ġstatelor": 5919,
      "ĠdoreÅŁte": 5920,
      "Ġinvestitori": 5921,
      "Ġcosturile": 5922,
      "ĠcooperÄĥrii": 5923,
      "Ġantreprenor": 5924,
      "Ġimaginea": 5925,
      "Ġkilograme": 5926,
      "cine": 5927,
      "gurÄĥ": 5928,
      "nici": 5929,
      "ĠDi": 5930,
      "ĠrÄĥsp": 5931,
      "ĠposibilÄĥ": 5932,
      "Ġinval": 5933,
      "Ġcamera": 5934,
      "ĠCercetÄĥtorii": 5935,
      "vine": 5936,
      "ĠactivitÄĥÅ£i": 5937,
      "Ġcerin": 5938,
      "ĠÅŀti": 5939,
      "Ġ120": 5940,
      "Ġadoptarea": 5941,
      "iului": 5942,
      "Ġprecon": 5943,
      "Ġinteligen": 5944,
      "Ġpunctat": 5945,
      "Ġprimesc": 5946,
      "Ġdezbatere": 5947,
      "Ġsferturile": 5948,
      "ĠcivilÄĥ": 5949,
      "Ġunu": 5950,
      "imea": 5951,
      "Ġauzit": 5952,
      "Ġalco": 5953,
      "ĠfiindcÄĥ": 5954,
      "Ġcursa": 5955,
      "Ġaltceva": 5956,
      "Ġgala": 5957,
      "Ġvictorii": 5958,
      "ĠexperienÅ£Äĥ": 5959,
      "ĠsÄĥnÄĥto": 5960,
      "Ġserios": 5961,
      "Ġsine": 5962,
      "Ġdese": 5963,
      "ĠmÃ¢nd": 5964,
      "Ġreale": 5965,
      "cipl": 5966,
      "ĠEra": 5967,
      "ĠatÃ®t": 5968,
      "ĠurmÄĥtoarea": 5969,
      "ĠinstituÅ£iile": 5970,
      "Ġpoliticieni": 5971,
      "ĠdesfÄĥÅŁura": 5972,
      "Ġasteroid": 5973,
      "Ġsimbol": 5974,
      "ton": 5975,
      "Ġprimii": 5976,
      "ĠprivinÅ£a": 5977,
      "ĠaducÄĥ": 5978,
      "ĠjustiÅ£iei": 5979,
      "ĠdovadÄĥ": 5980,
      "ĠEvenimentul": 5981,
      "Ġrul": 5982,
      "Ġexpe": 5983,
      "ĠlocalÄĥ": 5984,
      "ologie": 5985,
      "Ġguvernarea": 5986,
      "ĠieÈĻi": 5987,
      "Ġoficialii": 5988,
      "artea": 5989,
      "Ġpreced": 5990,
      "Ġparale": 5991,
      "Ġmilitare": 5992,
      "venind": 5993,
      "Ġdezvolta": 5994,
      "dact": 5995,
      "Ġpleca": 5996,
      "Ġsalariilor": 5997,
      "Ġtinerilor": 5998,
      "Ġrespins": 5999,
      "Ġamenaj": 6000,
      "Ġatrage": 6001,
      "ĠExistÄĥ": 6002,
      "Ġemisiunii": 6003,
      "cidente": 6004,
      "Ġmama": 6005,
      "Ġechivalen": 6006,
      "Ġdisponibile": 6007,
      "Ġpom": 6008,
      "Ġlar": 6009,
      "ĠinternÄĥ": 6010,
      "ĠriscÄĥ": 6011,
      "Ġafacere": 6012,
      "Ġtehnologiei": 6013,
      "Ġcalificarea": 6014,
      "ĠÂ«": 6015,
      "vs": 6016,
      "vÃ¢r": 6017,
      "ĠÈĽi": 6018,
      "ĠDaca": 6019,
      "duct": 6020,
      "Ġ85": 6021,
      "Ġdezvolte": 6022,
      "Ġcircu": 6023,
      "Ġincluse": 6024,
      "Ġsolar": 6025,
      "Ġparlamentari": 6026,
      "Ġrefu": 6027,
      "Ġconcrete": 6028,
      "Ġsupravie": 6029,
      "Ġmass": 6030,
      "cantul": 6031,
      "ĠarÄĥta": 6032,
      "Ġcritic": 6033,
      "Ġculturale": 6034,
      "ĠminiÈĻtri": 6035,
      "ĠguvernÄĥrii": 6036,
      "zÃ¢nd": 6037,
      "Ġcondit": 6038,
      "Ġantic": 6039,
      "Ġspat": 6040,
      "Ġlocului": 6041,
      "Ġstatut": 6042,
      "Å£ionate": 6043,
      "ĠsursÄĥ": 6044,
      "ĠAstÄĥzi": 6045,
      "Ġweb": 6046,
      "Ġmp": 6047,
      "Ġinov": 6048,
      "Ġlini": 6049,
      "ĠreÃ®n": 6050,
      "iote": 6051,
      "ÈĻtilor": 6052,
      "Ġtema": 6053,
      "Ġ77": 6054,
      "ĠediÅ£ie": 6055,
      "ĠoraÈĻului": 6056,
      "ĠcetÄĥÅ£eni": 6057,
      "Ġfalse": 6058,
      "Ġdiploma": 6059,
      "Ġcifra": 6060,
      "ĠUlti": 6061,
      "Ġintegral": 6062,
      "rop": 6063,
      "Ġopre": 6064,
      "Ġlot": 6065,
      "Ġceilal": 6066,
      "ĠartÄĥ": 6067,
      "Ġjs": 6068,
      "Ġspunem": 6069,
      "Ġmembrilor": 6070,
      "Ġreformele": 6071,
      "Ġlocalitatea": 6072,
      "Ġlichid": 6073,
      "Ġmoderne": 6074,
      "ĠpoliÈĽi": 6075,
      "ĠgÃ¢ndit": 6076,
      "ĠvitezÄĥ": 6077,
      "Ġimobil": 6078,
      "Ġimobili": 6079,
      "Ġlegitim": 6080,
      "Ġgalb": 6081,
      "Ġcitate": 6082,
      "ĠsÃ¢n": 6083,
      "ÈĻÄĥ": 6084,
      "ĠAv": 6085,
      "Ġrobo": 6086,
      "Ġinterese": 6087,
      "ĠinternaÈĽionalÄĥ": 6088,
      "Ġfilmul": 6089,
      "Ġpornit": 6090,
      "Ġfolosind": 6091,
      "Ġexperti": 6092,
      "Ġpreluc": 6093,
      "Ġglobal": 6094,
      "titÄĥ": 6095,
      "anÅ£ii": 6096,
      "urn": 6097,
      "Ġcapul": 6098,
      "ĠapÄĥrea": 6099,
      "Ġtemperaturi": 6100,
      "Ġmisiune": 6101,
      "Ġistorice": 6102,
      "Ġexploat": 6103,
      "ĠspaÅ£iul": 6104,
      "ek": 6105,
      "Ġbise": 6106,
      "Ġgri": 6107,
      "Ġcoe": 6108,
      "anda": 6109,
      "ĠurmÄĥtorul": 6110,
      "Ġconfr": 6111,
      "chet": 6112,
      "Ġdecisiv": 6113,
      "Ġcunosc": 6114,
      "Ġrevine": 6115,
      "Ġsolicitarea": 6116,
      "Ġcinemat": 6117,
      "ĠvÃ¢nzare": 6118,
      "ĠcompetiÅ£ie": 6119,
      "Ġprelimin": 6120,
      "Ġviteza": 6121,
      "Ġpetrecut": 6122,
      "strali": 6123,
      "Ġinvalid": 6124,
      "Ġsune": 6125,
      "Ġnon": 6126,
      "Ġinainte": 6127,
      "ĠreferÄĥ": 6128,
      "ĠSpecial": 6129,
      "cis": 6130,
      "Ġsav": 6131,
      "ĠatÃ¢": 6132,
      "otrivÄĥ": 6133,
      "uÄĥm": 6134,
      "Ġajute": 6135,
      "Ġsecre": 6136,
      "Ġmeciurile": 6137,
      "ĠPeste": 6138,
      "ĠculturÄĥ": 6139,
      "Ġplatforme": 6140,
      "Ġlibere": 6141,
      "Ġinstrumente": 6142,
      "Ġmanipul": 6143,
      "Ġslab": 6144,
      "ĠdimineaÅ£Äĥ": 6145,
      "Ġvarianta": 6146,
      "ĠÃ®mpied": 6147,
      "Å£inutÄĥ": 6148,
      "urne": 6149,
      "top": 6150,
      "ĠalÈĽi": 6151,
      "Ġadunat": 6152,
      "Ġgrupe": 6153,
      "Ġforme": 6154,
      "Ġproblemelor": 6155,
      "Ġscena": 6156,
      "ĠÃ®ntrevederi": 6157,
      "Ġefectele": 6158,
      "Ġdie": 6159,
      "Ġfii": 6160,
      "ĠMa": 6161,
      "uratÄĥ": 6162,
      "Ġpartener": 6163,
      "Ġprobe": 6164,
      "Ġdatoria": 6165,
      "Ġactuala": 6166,
      "Ġbugetare": 6167,
      "Ġlupte": 6168,
      "Ġcontractului": 6169,
      "Ġsuspendat": 6170,
      "ĠafecteazÄĥ": 6171,
      "zÄĥtoare": 6172,
      "ĠVal": 6173,
      "ĠneÃ®n": 6174,
      "Ġinterim": 6175,
      "porter": 6176,
      "Ġproba": 6177,
      "ĠsituaÈĽie": 6178,
      "ĠÃ®ntÃ¢mpla": 6179,
      "Ġpropunere": 6180,
      "Ġindemn": 6181,
      "Ġcriticat": 6182,
      "Ġimplicate": 6183,
      "ÈĻeÈĻte": 6184,
      "Ġmijlocul": 6185,
      "oaica": 6186,
      "Ġambasadorul": 6187,
      "Ġcarbur": 6188,
      "Ġipote": 6189,
      "Le": 6190,
      "ĠdeÈĽine": 6191,
      "ĠrealÄĥ": 6192,
      "Ġbon": 6193,
      "Ġbuc": 6194,
      "Ġbord": 6195,
      "ĠsusÈĽinÄĥ": 6196,
      "Ġrapo": 6197,
      "Ġ195": 6198,
      "Ġtabl": 6199,
      "Ġparticipare": 6200,
      "ĠautoritÄĥÅ£ilor": 6201,
      "ĠÃ®ndepÄĥr": 6202,
      "Ġarticole": 6203,
      "ĠFostul": 6204,
      "Ġascun": 6205,
      "Ġimplicarea": 6206,
      "ĠPrimul": 6207,
      "ĠMinutul": 6208,
      "25": 6209,
      "Ġrand": 6210,
      "teran": 6211,
      "Ġreabil": 6212,
      "prezent": 6213,
      "Ġada": 6214,
      "Ġinformare": 6215,
      "Ġ99": 6216,
      "Ġrealiza": 6217,
      "Ġdispune": 6218,
      "Ġmasa": 6219,
      "ĠproducÄĥtori": 6220,
      "ĠprezenÈĽa": 6221,
      "Ġimpactul": 6222,
      "ĠpotenÅ£ial": 6223,
      "Ġvehicule": 6224,
      "Ġtrimestru": 6225,
      "80": 6226,
      "Ġope": 6227,
      "Ġpresedin": 6228,
      "ĠliberÄĥ": 6229,
      "ĠcapitalÄĥ": 6230,
      "ĠsocietÄĥ": 6231,
      "ĠatenÈĽia": 6232,
      "Ġconfirm": 6233,
      "Ġidee": 6234,
      "Ġcunoscute": 6235,
      "ĠautostrÄĥ": 6236,
      "ĠspecialiÅŁtii": 6237,
      "ĠcÃ¢Å£iva": 6238,
      "Ġax": 6239,
      "anÅ£i": 6240,
      "itorul": 6241,
      "Ġpreocu": 6242,
      "cÄĥrii": 6243,
      "ĠGul": 6244,
      "Ġhand": 6245,
      "Ġsalariale": 6246,
      "Ġintens": 6247,
      "ĠpoziÈĽia": 6248,
      "Ġgenerat": 6249,
      "Ġextinderea": 6250,
      "ĠÃ®nvÄĥÅ£Äĥ": 6251,
      "Ġinaugur": 6252,
      "ĠcenzurÄĥ": 6253,
      "iÅŁtii": 6254,
      "Ġstre": 6255,
      "Ġintamp": 6256,
      "ĠunitÄĥÅ£i": 6257,
      "cÄĥr": 6258,
      "ĠiarnÄĥ": 6259,
      "Ġbanilor": 6260,
      "ĠregionalÄĥ": 6261,
      "Ġdiscipl": 6262,
      "Ġaveam": 6263,
      "Ġoprit": 6264,
      "ĠbucÄĥ": 6265,
      "Ġtermin": 6266,
      "Ġrepubl": 6267,
      "Ġstuden": 6268,
      "ĠÃ®ntrebare": 6269,
      "Ġatmosfera": 6270,
      "Ġspectacol": 6271,
      "Ġarticol": 6272,
      "ĠbenzinÄĥ": 6273,
      "curilor": 6274,
      "Ġrecip": 6275,
      "Ġspi": 6276,
      "cesul": 6277,
      "Ġ194": 6278,
      "Ġ2005": 6279,
      "Ġspecialitate": 6280,
      "acke": 6281,
      "Ġlansare": 6282,
      "ĠfolositÄĥ": 6283,
      "ĠcorectÄĥ": 6284,
      "ĠrÄĥspunde": 6285,
      "ĠcÄĥror": 6286,
      "Ġcooperarea": 6287,
      "ĠsuprafaÅ£Äĥ": 6288,
      "Ġdeficit": 6289,
      "Ġshow": 6290,
      "ĠRomÃ¢n": 6291,
      "Ġis": 6292,
      "ĠÅŀtefan": 6293,
      "Ġreprezentantul": 6294,
      "ĠProb": 6295,
      "ĠeficientÄĥ": 6296,
      "Ġdificul": 6297,
      "Ġsemifina": 6298,
      "Ġscandal": 6299,
      "bri": 6300,
      "Ġmarea": 6301,
      "ĠSc": 6302,
      "Ġarh": 6303,
      "arile": 6304,
      "Ġplo": 6305,
      "Ġvezi": 6306,
      "ĠobiÅŁ": 6307,
      "ĠactivitÄĥÅ£ii": 6308,
      "ĠnaturÄĥ": 6309,
      "ĠpreÅ£urile": 6310,
      "Ġdeschidere": 6311,
      "Ġatras": 6312,
      "Ġsezonul": 6313,
      "Ġtransformat": 6314,
      "Ġaminti": 6315,
      "ĠÄĥsta": 6316,
      "Ġinstal": 6317,
      "Ġsoare": 6318,
      "ĠÃ®napoi": 6319,
      "Ġred": 6320,
      "Ġcrezut": 6321,
      "ptatÄĥ": 6322,
      "Ġdepinde": 6323,
      "Ġrutie": 6324,
      "ĠsemnÄĥturi": 6325,
      "ĠÃ®ncheie": 6326,
      "Ġfolosirea": 6327,
      "Ġprofesorul": 6328,
      "ĠiniÈĽiativa": 6329,
      "ĠvieÅ£ii": 6330,
      "Ġmodernizarea": 6331,
      "Ġvizitei": 6332,
      "ĠapÄĥrare": 6333,
      "Ġalcool": 6334,
      "rar": 6335,
      "Ġdeas": 6336,
      "ÈĻul": 6337,
      "ĠtatÄĥ": 6338,
      "ĠDu": 6339,
      "Ġdola": 6340,
      "Ġcreeze": 6341,
      "Ġagent": 6342,
      "ĠschimbÄĥ": 6343,
      "Ġlideri": 6344,
      "Ġoficiali": 6345,
      "ĠfoloseascÄĥ": 6346,
      "ĠproducÅ£ia": 6347,
      "Ġevenimentul": 6348,
      "ĠlegislaÈĽiei": 6349,
      "ĠscenÄĥ": 6350,
      "Ġsimilar": 6351,
      "ĠParti": 6352,
      "Ġvamale": 6353,
      "Ġteatru": 6354,
      "Ġdeplasare": 6355,
      "anÈĽi": 6356,
      "Ġaustrali": 6357,
      "Ġprost": 6358,
      "Å£iunile": 6359,
      "oca": 6360,
      "Ġram": 6361,
      "Ġ79": 6362,
      "ĠasemÄĥnÄĥ": 6363,
      "Ġsemnarea": 6364,
      "ĠpauzÄĥ": 6365,
      "ĠÃ®nregistratÄĥ": 6366,
      "ĠbeneficiazÄĥ": 6367,
      "Ġcuprinde": 6368,
      "Ġpiata": 6369,
      "Ġdimensiuni": 6370,
      "Ġexcelen": 6371,
      "Ġautomobile": 6372,
      "Ġmixt": 6373,
      "cina": 6374,
      "inilor": 6375,
      "ĠmÃ¢nÄĥ": 6376,
      "Ġexpor": 6377,
      "Ġnoii": 6378,
      "ĠadÃ¢n": 6379,
      "Ġguvernului": 6380,
      "Ġstabili": 6381,
      "ĠcomerÈĽ": 6382,
      "Ġregiuni": 6383,
      "Ġcapitolul": 6384,
      "ĠcompetiÅ£iei": 6385,
      "Ġteleviz": 6386,
      "Ġcultural": 6387,
      "ĠridicatÄĥ": 6388,
      "Ġdialogului": 6389,
      "Ġdeasupra": 6390,
      "veni": 6391,
      "Ġdel": 6392,
      "riv": 6393,
      "Ġcase": 6394,
      "ĠVreau": 6395,
      "ĠOficial": 6396,
      "ĠhÃ¢r": 6397,
      "Ġinveste": 6398,
      "ĠsocialiÈĻti": 6399,
      "Ġsursei": 6400,
      "ĠfirmÄĥ": 6401,
      "ĠÃ®mbrÄĥ": 6402,
      "Ġ1990": 6403,
      "ĠproducÄĥtorii": 6404,
      "Ġtipuri": 6405,
      "exi": 6406,
      "Ġfotbali": 6407,
      "ĠFiecare": 6408,
      "Ġcafea": 6409,
      "ĠÃ®nscrie": 6410,
      "ÈĽinutÄĥ": 6411,
      "tile": 6412,
      "Ġreferit": 6413,
      "ĠNum": 6414,
      "Ġnev": 6415,
      "ficarea": 6416,
      "Ġcola": 6417,
      "Ġtotale": 6418,
      "toritÄĥ": 6419,
      "ĠrÃ®nd": 6420,
      "ĠgreÈĻ": 6421,
      "Ġstiinta": 6422,
      "Ġsferturi": 6423,
      "ĠselecÅ£ion": 6424,
      "Ġpragul": 6425,
      "ĠmulÈĽumit": 6426,
      "ĠÃ®ntrevederii": 6427,
      "ĠspaÈĽiul": 6428,
      "itudinea": 6429,
      "spect": 6430,
      "icianul": 6431,
      "siunii": 6432,
      "Ġjandar": 6433,
      "Ġ,,": 6434,
      "ĠfuncÈĽii": 6435,
      "Ġaso": 6436,
      "Ġeram": 6437,
      "Ġpremiul": 6438,
      "Ġviceprim": 6439,
      "Ġfinale": 6440,
      "Ġmajoritate": 6441,
      "Ġvideoc": 6442,
      "Ġafectat": 6443,
      "Ġinfrastructura": 6444,
      "Ġabordare": 6445,
      "ĠcÄĥrui": 6446,
      "Ġuniversit": 6447,
      "Ġconcluzia": 6448,
      "Ġconflict": 6449,
      "Ġcheltuielilor": 6450,
      "Ġprioritate": 6451,
      "ĠgrÄĥdin": 6452,
      "ber": 6453,
      "gÃ¢nd": 6454,
      "Ġza": 6455,
      "ĸº": 6456,
      "Ġmanu": 6457,
      "Ġvan": 6458,
      "ĠFe": 6459,
      "Ġconturile": 6460,
      "Ġdeparta": 6461,
      "Ġprezinte": 6462,
      "Ġcontractul": 6463,
      "Ġretras": 6464,
      "ĠÅŁedinÅ£ei": 6465,
      "ĠcamerÄĥ": 6466,
      "Ġdemocratice": 6467,
      "Ġaprobarea": 6468,
      "ĠdÄĥm": 6469,
      "Ġrecep": 6470,
      "Ġrecol": 6471,
      "Ġformarea": 6472,
      "ĠiniÅ£ial": 6473,
      "ĠSetarile": 6474,
      "ĠasistenÈĽÄĥ": 6475,
      "ĠÅŁedinÅ£Äĥ": 6476,
      "Ġfavora": 6477,
      "Ġaferente": 6478,
      "sului": 6479,
      "Ġnorme": 6480,
      "Ġmail": 6481,
      "Ġdomic": 6482,
      "Ġ900": 6483,
      "Ġimplementat": 6484,
      "imetri": 6485,
      "ĠcrizÄĥ": 6486,
      "Ġfestival": 6487,
      "Ġzilnic": 6488,
      "Ġinterimar": 6489,
      "lativÄĥ": 6490,
      "of": 6491,
      "lem": 6492,
      "Ġochii": 6493,
      "Ġdiscutate": 6494,
      "Ġmarile": 6495,
      "ĠProgra": 6496,
      "ĠcercetÄĥri": 6497,
      "ĠproducÄĥtor": 6498,
      "ĠloviturÄĥ": 6499,
      "Ġcreditele": 6500,
      "ĠromÃ¢neÅŁti": 6501,
      "Ġjurnalist": 6502,
      "ĠmoldoveneascÄĥ": 6503,
      "Ġhectare": 6504,
      "ĠÅŁtiinÅ£i": 6505,
      "stri": 6506,
      "Ġpedep": 6507,
      "Ġblog": 6508,
      "Ġdoctor": 6509,
      "Ġmemo": 6510,
      "Ġcresc": 6511,
      "iden": 6512,
      "ĠieÅŁit": 6513,
      "Ġsovie": 6514,
      "Ġumb": 6515,
      "Ġpromovare": 6516,
      "Ġtemperatura": 6517,
      "Ġprincipala": 6518,
      "Ġprincipalele": 6519,
      "Ġdetermina": 6520,
      "este": 6521,
      "Ġdvs": 6522,
      "Ġans": 6523,
      "Ġexiste": 6524,
      "Ġsudul": 6525,
      "ĠprimeascÄĥ": 6526,
      "mÃ¢ntul": 6527,
      "Ġrelax": 6528,
      "ĠscurtÄĥ": 6529,
      "Ġlibertatea": 6530,
      "Ġcontrolului": 6531,
      "ĠelectronicÄĥ": 6532,
      "Ġrestric": 6533,
      "Ġconsecutiv": 6534,
      "Ġcomportament": 6535,
      "atelor": 6536,
      "Ġgrij": 6537,
      "Ġstar": 6538,
      "Ġneut": 6539,
      "Ġsust": 6540,
      "Ġmotoare": 6541,
      "Ġconserv": 6542,
      "Ġvreun": 6543,
      "Ġplenul": 6544,
      "Ġlocuin": 6545,
      "Ġsubiectul": 6546,
      "Ġprimarului": 6547,
      "Ġconcursului": 6548,
      "ĠcÃ®ÈĻti": 6549,
      "ĠdezvÄĥluit": 6550,
      "grÄĥ": 6551,
      "pit": 6552,
      "ty": 6553,
      "ughe": 6554,
      "Ġinvin": 6555,
      "ĠCÄĥ": 6556,
      "ĠAre": 6557,
      "ĠSt": 6558,
      "ĠaceÅŁti": 6559,
      "Ġlemn": 6560,
      "Ġ95": 6561,
      "Ġcontinue": 6562,
      "Ġactuale": 6563,
      "Ġapei": 6564,
      "Ġmaximum": 6565,
      "Ġpensie": 6566,
      "ĠÃ®ntoc": 6567,
      "ĠanumitÄĥ": 6568,
      "ĠÈĻtiinÈĽi": 6569,
      "Ġsoftware": 6570,
      "fir": 6571,
      "sarea": 6572,
      "unit": 6573,
      "Å£area": 6574,
      "imp": 6575,
      "Ġfaca": 6576,
      "Ġminut": 6577,
      "ĠDeÅŁi": 6578,
      "ĠcÃ¢mp": 6579,
      "ĠactivitÄĥÈĽi": 6580,
      "Ġmiste": 6581,
      "Ġacordul": 6582,
      "Ġpiese": 6583,
      "ĠmenÈĽioneazÄĥ": 6584,
      "Ġpropuneri": 6585,
      "ĠlimitÄĥ": 6586,
      "Ġmuncit": 6587,
      "ĠmÄĥrturi": 6588,
      "ĠiniÈĽiative": 6589,
      "ĠsuprafaÅ£a": 6590,
      "ĠcunoscutÄĥ": 6591,
      "ĠjuridicÄĥ": 6592,
      "Ġcrestere": 6593,
      "Ġdeosebire": 6594,
      "Ġcolegilor": 6595,
      "Ġsupraveghere": 6596,
      "ĠÃ®nÄĥl": 6597,
      "Ġrecipro": 6598,
      "apÄĥ": 6599,
      "coli": 6600,
      "luc": 6601,
      "tarÄĥ": 6602,
      "Ġui": 6603,
      "lesc": 6604,
      "Ġlive": 6605,
      "siona": 6606,
      "Ġperfec": 6607,
      "Ġtoata": 6608,
      "Ġbanc": 6609,
      "Ġsimul": 6610,
      "ĠlansatÄĥ": 6611,
      "ĠaplicaÅ£ii": 6612,
      "Ġconsumul": 6613,
      "ĠsusÅ£inerea": 6614,
      "Ġliderului": 6615,
      "Ġcondamn": 6616,
      "ĠtransnistreanÄĥ": 6617,
      "andi": 6618,
      "Ġrelativ": 6619,
      "Ġpof": 6620,
      "sÄĥri": 6621,
      "Ġpoliticii": 6622,
      "Ġrectific": 6623,
      "ologul": 6624,
      "Ġbacte": 6625,
      "Ġlumina": 6626,
      "Ġafecta": 6627,
      "Ġgazelor": 6628,
      "Ġelaborarea": 6629,
      "ĠtreacÄĥ": 6630,
      "Ġdepozi": 6631,
      "Ġextraordinar": 6632,
      "ĠcunoaÈĻte": 6633,
      "ĠÃ®mbunÄĥtÄĥÈĽirea": 6634,
      "Ġparalel": 6635,
      "galÄĥ": 6636,
      "zili": 6637,
      "tag": 6638,
      "unerea": 6639,
      "Ġavion": 6640,
      "Ġconturi": 6641,
      "saÈĽi": 6642,
      "Ġminge": 6643,
      "Ġ87": 6644,
      "ĠgravÄĥ": 6645,
      "Ġdeciziei": 6646,
      "umÄĥrul": 6647,
      "Ġsucce": 6648,
      "ĠÃ®nvÄĥÈĽÄĥ": 6649,
      "Ġfotografie": 6650,
      "ĠhotÄĥrÃ¢re": 6651,
      "Ġfrumoase": 6652,
      "Ġmeteor": 6653,
      "Ðµ": 6654,
      "ĠcÄĥzut": 6655,
      "ĠalÄĥ": 6656,
      "Ġmetro": 6657,
      "busti": 6658,
      "ariu": 6659,
      "Ġsuta": 6660,
      "Ġrapor": 6661,
      "Ġpropuse": 6662,
      "ĠpÄĥtra": 6663,
      "Ġvotului": 6664,
      "ĠvreodatÄĥ": 6665,
      "ĠbÄĥut": 6666,
      "ĠdeclaraÈĽii": 6667,
      "ĠÃ®nÅ£eles": 6668,
      "Ġromani": 6669,
      "Ġsecretar": 6670,
      "Ġpoporului": 6671,
      "ĠstÃ¢nga": 6672,
      "sea": 6673,
      "Ġinspi": 6674,
      "Ġexpres": 6675,
      "Ġdecre": 6676,
      "uvern": 6677,
      "itati": 6678,
      "Ġsolare": 6679,
      "Ġobiect": 6680,
      "Ġimplementare": 6681,
      "Ġadresat": 6682,
      "Ġprietenii": 6683,
      "Ġprofesionist": 6684,
      "Ġinterzis": 6685,
      "ĠcampioanÄĥ": 6686,
      "jului": 6687,
      "Ġflori": 6688,
      "tiile": 6689,
      "Ġtopul": 6690,
      "ĠsecundÄĥ": 6691,
      "Ġinvestitorilor": 6692,
      "ĠbucurÄĥ": 6693,
      "Ġpetroliere": 6694,
      "Ġritm": 6695,
      "su": 6696,
      "Ġdegra": 6697,
      "Ġfuse": 6698,
      "ĠcÄĥld": 6699,
      "Ġanuntat": 6700,
      "Ġacre": 6701,
      "Ġminus": 6702,
      "Ġ74": 6703,
      "Ġeliber": 6704,
      "Ġschimbe": 6705,
      "ĠcautÄĥ": 6706,
      "Ġsolicit": 6707,
      "Ġtentat": 6708,
      "ĠiasÄĥ": 6709,
      "Ġidentificat": 6710,
      "Ġaerona": 6711,
      "Ġcabine": 6712,
      "satÄĥ": 6713,
      "Ġdiz": 6714,
      "ĠvÃ®r": 6715,
      "ÈĽiva": 6716,
      "astru": 6717,
      "Ġspecul": 6718,
      "Ġ82": 6719,
      "ĠpublicatÄĥ": 6720,
      "ficiente": 6721,
      "Ġgrupa": 6722,
      "ĠUnul": 6723,
      "Ġplece": 6724,
      "Ġregiunile": 6725,
      "ĠcumpÄĥr": 6726,
      "Ġ1992": 6727,
      "ĠexperÈĽi": 6728,
      "ĠCeea": 6729,
      "Ġapropiere": 6730,
      "Ġnordul": 6731,
      "Ġprocurorii": 6732,
      "Ġneconstitu": 6733,
      "umatate": 6734,
      "ĠaceÈĻti": 6735,
      "Ġaca": 6736,
      "sivÄĥ": 6737,
      "Ġstra": 6738,
      "Ġsuver": 6739,
      "sÄĥrii": 6740,
      "ĠobÅ£inute": 6741,
      "Ġ1000": 6742,
      "Ġaplicate": 6743,
      "Ġtelefoanele": 6744,
      "Ġmanager": 6745,
      "Ġpozitive": 6746,
      "____": 6747,
      "%*": 6748,
      "Ġdane": 6749,
      "ÈĻinÄĥ": 6750,
      "ĠcreatÄĥ": 6751,
      "ĠclarÄĥ": 6752,
      "Ġconside": 6753,
      "Ġprincipalul": 6754,
      "ĠjucÄĥtorii": 6755,
      "Ġgest": 6756,
      "Ġversiune": 6757,
      "Ġjuridic": 6758,
      "Ġelectronic": 6759,
      "Ġimpozitul": 6760,
      "Ġmanifesta": 6761,
      "Ġdiplomatice": 6762,
      "Ġrevizuire": 6763,
      "iva": 6764,
      "Ġochi": 6765,
      "Ġcedat": 6766,
      "sÄĥm": 6767,
      "Ġvech": 6768,
      "ĠieÈĻit": 6769,
      "cipita": 6770,
      "ĠinternaÅ£ionalÄĥ": 6771,
      "ĠlegislativÄĥ": 6772,
      "Ġfondurilor": 6773,
      "Ġsunte": 6774,
      "Ġinvestitorii": 6775,
      "ĠAnun": 6776,
      "Ġmisiunea": 6777,
      "Ġprincipale": 6778,
      "ĠNoul": 6779,
      "Ġepis": 6780,
      "Ġghem": 6781,
      "Ġpasageri": 6782,
      "Ġdefinitiv": 6783,
      "Ġagricole": 6784,
      "Ġarhite": 6785,
      "Ġdomicil": 6786,
      "Ġacadem": 6787,
      "arti": 6788,
      "Ġseria": 6789,
      "ĠAÈĻa": 6790,
      "Ġcomenta": 6791,
      "ĠpuÅ£ine": 6792,
      "Ġprimului": 6793,
      "Ġromane": 6794,
      "Ġmingi": 6795,
      "Ġtranspor": 6796,
      "Ġnave": 6797,
      "matricul": 6798,
      "Ġcitit": 6799,
      "Ġlinie": 6800,
      "Ġgradul": 6801,
      "Ġcompetitiv": 6802,
      "Ġolimpic": 6803,
      "ĠfinanÅ£are": 6804,
      "Ġincredi": 6805,
      "10": 6806,
      "ĠK": 6807,
      "ĠconÅŁti": 6808,
      "Ġprovin": 6809,
      "olat": 6810,
      "Ġprefer": 6811,
      "oriu": 6812,
      "Ġastrona": 6813,
      "netic": 6814,
      "Ġproprii": 6815,
      "ĠacordÄĥ": 6816,
      "Ġrezerve": 6817,
      "Ġvoteze": 6818,
      "ĠaÈĻteaptÄĥ": 6819,
      "ĠmondialÄĥ": 6820,
      "Ġdescoperite": 6821,
      "ĠdesfÄĥÅŁoarÄĥ": 6822,
      "Ġdeterminat": 6823,
      "Ġcapacitate": 6824,
      "Ġpromisi": 6825,
      "Ġmagistra": 6826,
      "ĠconÈĻti": 6827,
      "ciul": 6828,
      "sel": 6829,
      "ĠFa": 6830,
      "saÅ£i": 6831,
      "Ġ68": 6832,
      "ĠdeclarÄĥ": 6833,
      "Ġorigine": 6834,
      "Ġcomisiei": 6835,
      "ĠÃ®ntreprinderi": 6836,
      "ĠestimeazÄĥ": 6837,
      "Ġmisiuni": 6838,
      "ĠpopulaÅ£iei": 6839,
      "ĠapreciazÄĥ": 6840,
      "Ġasumate": 6841,
      "Ġdr": 6842,
      "Ġcio": 6843,
      "ĠSol": 6844,
      "Ġfoc": 6845,
      "Ġsustin": 6846,
      "Ġdiferi": 6847,
      "ĠfuncÅ£iona": 6848,
      "matic": 6849,
      "Ġcontinuarea": 6850,
      "Ġsalariului": 6851,
      "ĠÃ®ntoarce": 6852,
      "ĠcandidaÈĽi": 6853,
      "Ġsecretarul": 6854,
      "ĠplÄĥtite": 6855,
      "Ġdepozit": 6856,
      "ĠrecunoaÅŁte": 6857,
      "Ġtemporar": 6858,
      "ĠÃ®ntors": 6859,
      "ĠaflatÄĥ": 6860,
      "Ġrevolu": 6861,
      "Ġsind": 6862,
      "Ġfar": 6863,
      "rute": 6864,
      "Ġbul": 6865,
      "zÄĥrii": 6866,
      "seÈĻte": 6867,
      "Ġtera": 6868,
      "Ġlocali": 6869,
      "Ġtransportul": 6870,
      "Ġsector": 6871,
      "ĠÃ®nvingÄĥ": 6872,
      "ĠÃ®nghe": 6873,
      "Ġintegrarea": 6874,
      "Ġprovocat": 6875,
      "Ġelaborat": 6876,
      "Ġbrazili": 6877,
      "Ġdisputat": 6878,
      "pentru": 6879,
      "cei": 6880,
      "Ġoaspe": 6881,
      "Ġanterioare": 6882,
      "ĠalÅ£ii": 6883,
      "Ġnotific": 6884,
      "orile": 6885,
      "Ġurne": 6886,
      "Ġnumarul": 6887,
      "ĠimportanÈĽa": 6888,
      "ĠdiscuÈĽie": 6889,
      "ĠsemnÄĥ": 6890,
      "ĠproducÈĽie": 6891,
      "Ġcontribuit": 6892,
      "Ġpovestit": 6893,
      "ĠpÄĥstreazÄĥ": 6894,
      "Ġtalen": 6895,
      "Ġapartamente": 6896,
      "ĠW": 6897,
      "ĠÃ®nse": 6898,
      "ĠlasÄĥ": 6899,
      "Ġboli": 6900,
      "Ġcomentat": 6901,
      "ziune": 6902,
      "ĠLuc": 6903,
      "Ġcoti": 6904,
      "andÄĥ": 6905,
      "Ġregre": 6906,
      "ĠfuncÈĽiona": 6907,
      "Ġintal": 6908,
      "Ġdrepturi": 6909,
      "Ġvrei": 6910,
      "ĠdistanÈĽÄĥ": 6911,
      "Ġculoare": 6912,
      "Ġtinere": 6913,
      "Ġmomentului": 6914,
      "Ġasigurare": 6915,
      "ĠpregÄĥtire": 6916,
      "Ġenergetic": 6917,
      "Ġconcert": 6918,
      "Ġpachet": 6919,
      "ĠsÃ¢nge": 6920,
      "ĠProbabil": 6921,
      "ĠPrim": 6922,
      "conj": 6923,
      "ĠmobilÄĥ": 6924,
      "ĠfuncÅ£ioneazÄĥ": 6925,
      "Ġutilizate": 6926,
      "Ġoficialul": 6927,
      "ĠimplicÄĥ": 6928,
      "ĠputeÈĽi": 6929,
      "Ġpartenerilor": 6930,
      "Ġapropia": 6931,
      "ĠoraÅŁului": 6932,
      "Ġtratament": 6933,
      "Ġobiectivul": 6934,
      "ĠgÄĥseascÄĥ": 6935,
      "Ġgalax": 6936,
      "ĠSa": 6937,
      "Ġbel": 6938,
      "Ġaniver": 6939,
      "Ġcomite": 6940,
      "Ġned": 6941,
      "Ġjumatate": 6942,
      "Ġcompro": 6943,
      "ĠĠĠ": 6944,
      "Ġlistele": 6945,
      "ĠcÃ¢ÅŁtiga": 6946,
      "Ġtineret": 6947,
      "Ġclasament": 6948,
      "ĠÃ®nfrÃ¢n": 6949,
      "ĠdobÃ¢nd": 6950,
      "Ġreziden": 6951,
      "ĠtÃ¢nÄĥr": 6952,
      "ĠpurtÄĥtorul": 6953,
      "ĠconstatÄĥ": 6954,
      "Ġpros": 6955,
      "Ġcomen": 6956,
      "sive": 6957,
      "Ġimpul": 6958,
      "Ġfier": 6959,
      "ĠprivinÈĽa": 6960,
      "Ġclare": 6961,
      "Ġalegerea": 6962,
      "Ġrezultatelor": 6963,
      "ĠprezenÈĽi": 6964,
      "Ġportughe": 6965,
      "Ġdezbateri": 6966,
      "ĠmaÈĻinÄĥ": 6967,
      "Ġenergetice": 6968,
      "ĠurgenÈĽÄĥ": 6969,
      "Ġsatis": 6970,
      "Ġmasculin": 6971,
      "Ġuneori": 6972,
      "ĠartificialÄĥ": 6973,
      "rori": 6974,
      "ĠluÄĥm": 6975,
      "ĠconÅ£in": 6976,
      "tÄĥrile": 6977,
      "Ġspon": 6978,
      "Ġdecenii": 6979,
      "ĠfuncÈĽioneazÄĥ": 6980,
      "Ġtelecom": 6981,
      "Ġrealitatea": 6982,
      "Ġpunctele": 6983,
      "Ġjoace": 6984,
      "ĠdemonstreazÄĥ": 6985,
      "Ġstrategic": 6986,
      "Ġcampaniei": 6987,
      "ĠÃİmi": 6988,
      "ĠvÃ¢nzÄĥri": 6989,
      "Ġadjunct": 6990,
      "Ġbaschet": 6991,
      "ez": 6992,
      "nii": 6993,
      "ouri": 6994,
      "Ġauten": 6995,
      "Ġconcursul": 6996,
      "ĠOb": 6997,
      "ĠafiÅŁ": 6998,
      "Ġzic": 6999,
      "Ġsecrete": 7000,
      "ĠrelaÈĽii": 7001,
      "ĠpreÅ£uri": 7002,
      "Ġoperare": 7003,
      "Ġidentificarea": 7004,
      "Ġpenalty": 7005,
      "Ġaudio": 7006,
      "Ġcampioana": 7007,
      "ĠValoarea": 7008,
      "by": 7009,
      "reÈĻte": 7010,
      "ung": 7011,
      "Ġemite": 7012,
      "ierile": 7013,
      "ieÅŁte": 7014,
      "ram": 7015,
      "ĠalÈĽii": 7016,
      "Ġgrea": 7017,
      "amin": 7018,
      "Ġfacul": 7019,
      "ĠcreeazÄĥ": 7020,
      "Ġatle": 7021,
      "Ġspecii": 7022,
      "Ġacorda": 7023,
      "ĠgrupÄĥ": 7024,
      "Ġmedical": 7025,
      "Ġdescoperirea": 7026,
      "Ġmuzica": 7027,
      "ĠdeputaÈĽii": 7028,
      "ĠpopulaÈĽiei": 7029,
      "Ġweek": 7030,
      "Ġconstant": 7031,
      "ĠProgramul": 7032,
      "sare": 7033,
      "Ġsom": 7034,
      "scute": 7035,
      "Ġneo": 7036,
      "ĠobiÈĻ": 7037,
      "Ġ2002": 7038,
      "Ġlansate": 7039,
      "Ġcontesta": 7040,
      "ĠimplementÄĥrii": 7041,
      "Ġprocedurii": 7042,
      "Ġcomisie": 7043,
      "Ġproprietate": 7044,
      "Ġintegrare": 7045,
      "ĠconferinÈĽÄĥ": 7046,
      "ĠpoliÅ£i": 7047,
      "ĠnumitÄĥ": 7048,
      "Ġmergem": 7049,
      "ĠrapidÄĥ": 7050,
      "ĠDocum": 7051,
      "ĠvÃ¢ndute": 7052,
      "Ġresursele": 7053,
      "Ġstandard": 7054,
      "ĠbÄĥncile": 7055,
      "ĠÃ®ntÃ¢rz": 7056,
      "Ġnegative": 7057,
      "Ġnevoi": 7058,
      "dui": 7059,
      "spor": 7060,
      "Ġdans": 7061,
      "Ġnotat": 7062,
      "Ġcumul": 7063,
      "Ġprest": 7064,
      "Ġacelea": 7065,
      "Ġposes": 7066,
      "rans": 7067,
      "Ġ76": 7068,
      "ĠmenÅ£ioneazÄĥ": 7069,
      "Ġreprezentat": 7070,
      "Ġplanul": 7071,
      "ĠsoluÅ£ie": 7072,
      "Ġgrupuri": 7073,
      "Ġmajorare": 7074,
      "Ġcatal": 7075,
      "Ġinspect": 7076,
      "ĠconferinÈĽe": 7077,
      "Ġdrumurilor": 7078,
      "Ġfrag": 7079,
      "Ġlansa": 7080,
      "ĠconsideratÄĥ": 7081,
      "Ġeforturi": 7082,
      "tui": 7083,
      "ararea": 7084,
      "Ġgl": 7085,
      "ĠfazÄĥ": 7086,
      "ĠÃ®ntreru": 7087,
      "vita": 7088,
      "struc": 7089,
      "ĠAlte": 7090,
      "Ġsubven": 7091,
      "ĠurmÄĥrit": 7092,
      "trÃ¢n": 7093,
      "Ġvoie": 7094,
      "ajul": 7095,
      "Ġcompletarea": 7096,
      "ĠmaÅŁina": 7097,
      "Ġbucur": 7098,
      "ĠneagrÄĥ": 7099,
      "ĠconferinÅ£Äĥ": 7100,
      "ĠApro": 7101,
      "ĠduratÄĥ": 7102,
      "Ġstadionul": 7103,
      "Ġechipamente": 7104,
      "ĠatmosferÄĥ": 7105,
      "Ġapartament": 7106,
      "ĠvicepreÈĻedintele": 7107,
      "Ġrelev": 7108,
      "Ġfrecven": 7109,
      "Ġindicele": 7110,
      "Ġâĸº": 7111,
      "Leul": 7112,
      "ĠDupa": 7113,
      "18": 7114,
      "Ð¾": 7115,
      "Ġdot": 7116,
      "ruri": 7117,
      "Ġolande": 7118,
      "eamna": 7119,
      "ĠconÅ£inut": 7120,
      "Ġprecipita": 7121,
      "Ġcombusti": 7122,
      "Ġlucreze": 7123,
      "Ġcadru": 7124,
      "ioanele": 7125,
      "Ġzb": 7126,
      "Ġhacke": 7127,
      "ĠÃ®ncal": 7128,
      "Ġdreptate": 7129,
      "Ġtrage": 7130,
      "ĠinformaÅ£iile": 7131,
      "Ġefectua": 7132,
      "Ġsectoare": 7133,
      "Ġtrecerea": 7134,
      "ĠacÅ£iunile": 7135,
      "Ġdrago": 7136,
      "Ġdebutul": 7137,
      "Ġfabrica": 7138,
      "Ġgalben": 7139,
      "Ġsustine": 7140,
      "Ġste": 7141,
      "erpres": 7142,
      "Ġrefer": 7143,
      "Ġaudit": 7144,
      "Ġprep": 7145,
      "itÄĥrii": 7146,
      "Ġtransfe": 7147,
      "ĠducÄĥ": 7148,
      "Ġagerpres": 7149,
      "Ġsemnate": 7150,
      "Ġprotestat": 7151,
      "ĠreuÈĻi": 7152,
      "ĠpreÅ£urilor": 7153,
      "Ġartist": 7154,
      "Ġcreditelor": 7155,
      "ĠaÅŁtepta": 7156,
      "Ġregimul": 7157,
      "ĠalegÄĥtorilor": 7158,
      "Ġsimplific": 7159,
      "fol": 7160,
      "Ġinvoc": 7161,
      "Ġingine": 7162,
      "Ġuni": 7163,
      "ĠunitÄĥÈĽi": 7164,
      "ĠCare": 7165,
      "ĠSp": 7166,
      "uma": 7167,
      "Ġire": 7168,
      "Ġlect": 7169,
      "Ġader": 7170,
      "Ġpropriile": 7171,
      "ĠsituaÅ£ii": 7172,
      "Ġpiesa": 7173,
      "ĠreprezentanÅ£i": 7174,
      "Ġbibl": 7175,
      "Ġpunem": 7176,
      "ĠdepÄĥÈĻi": 7177,
      "Ġapropiate": 7178,
      "ÅŁeÅŁte": 7179,
      "Ġpetrece": 7180,
      "ĠsÄĥrbÄĥtori": 7181,
      "ĠÃ®mpÄĥrtÄĥ": 7182,
      "ĠUrmÄĥ": 7183,
      "Ġpatrimoni": 7184,
      "Ġdescu": 7185,
      "ĠanualÄĥ": 7186,
      "ÈĽiunile": 7187,
      "Ġgro": 7188,
      "Ġger": 7189,
      "taÅ£i": 7190,
      "Ġsapta": 7191,
      "mperat": 7192,
      "schimb": 7193,
      "Ġploi": 7194,
      "Ġtransportat": 7195,
      "ĠdezamÄĥ": 7196,
      "ĠpÄĥmÃ¢nt": 7197,
      "ĠUna": 7198,
      "ĠUnii": 7199,
      "Ġregionale": 7200,
      "Ġprocedurile": 7201,
      "Ġlinia": 7202,
      "Ġavertizat": 7203,
      "Ġstadion": 7204,
      "cidentul": 7205,
      "ĠmeritÄĥ": 7206,
      "lului": 7207,
      "anÅ£e": 7208,
      "Ġegale": 7209,
      "istrul": 7210,
      "veze": 7211,
      "ĠtotuÈĻi": 7212,
      "Ġvorbi": 7213,
      "Ġaband": 7214,
      "ĠaplicaÅ£ie": 7215,
      "Ġconducerii": 7216,
      "ĠRezul": 7217,
      "ĠamendÄĥ": 7218,
      "Ġinteresant": 7219,
      "Ġlichi": 7220,
      "Ġmotivul": 7221,
      "Ġtransmise": 7222,
      "Ġdescoperire": 7223,
      "Ġdemonstra": 7224,
      "Ġreferitor": 7225,
      "Ġinvent": 7226,
      "ĠlegislaÈĽia": 7227,
      "ĠvieÈĽii": 7228,
      "Ġaeroport": 7229,
      "ĠsugereazÄĥ": 7230,
      "Ġautoturisme": 7231,
      "enÈĽei": 7232,
      "Ġgolul": 7233,
      "Ġcompu": 7234,
      "venite": 7235,
      "ĠobÈĽinute": 7236,
      "Ġelement": 7237,
      "ĠuitÄĥm": 7238,
      "Ġelibe": 7239,
      "pÄĥrat": 7240,
      "Ġelectro": 7241,
      "Ġ2001": 7242,
      "Ġoferta": 7243,
      "Ġindica": 7244,
      "ĠacÅ£iune": 7245,
      "Ġcampionatul": 7246,
      "Ġdenumit": 7247,
      "Ġamplas": 7248,
      "Ġlungime": 7249,
      "ĠgÄĥsiÈĽi": 7250,
      "Ġexporturilor": 7251,
      "Ġasumat": 7252,
      "Ġtrimestrul": 7253,
      "Ġbeneficiat": 7254,
      "Ġavocat": 7255,
      "ĠÃ®ntreprinderilor": 7256,
      "Ġimpozite": 7257,
      "ĠminiÅŁtri": 7258,
      "Ġreiterat": 7259,
      "15": 7260,
      "surile": 7261,
      "vizi": 7262,
      "Ġsor": 7263,
      "Ġestul": 7264,
      "ĠRom": 7265,
      "Ġmoartea": 7266,
      "Ġurg": 7267,
      "Ġafric": 7268,
      "ĠplinÄĥ": 7269,
      "Ġtoamna": 7270,
      "Ġimport": 7271,
      "Ġnoastra": 7272,
      "Ġbazat": 7273,
      "Ġcancer": 7274,
      "ĠschimbÄĥrile": 7275,
      "ĠÅŀeful": 7276,
      "ĠcetÄĥÈĽe": 7277,
      "ĠjudeÈĽul": 7278,
      "ĠÃ®nregistrare": 7279,
      "Ġcarne": 7280,
      "pira": 7281,
      "ĠtrÄĥit": 7282,
      "ĠspaÈĽiu": 7283,
      "Ġcelulele": 7284,
      "ĠAdicÄĥ": 7285,
      "Ġsatelit": 7286,
      "Ġlaborator": 7287,
      "Ġpicioare": 7288,
      "Ġdolarului": 7289,
      "oz": 7290,
      "ĠconteazÄĥ": 7291,
      "ĠGuvernul": 7292,
      "taÈĽi": 7293,
      "ferii": 7294,
      "astÄĥ": 7295,
      "Ġdatorie": 7296,
      "ĠcursÄĥ": 7297,
      "Ġpromova": 7298,
      "ĠconstrucÈĽia": 7299,
      "Ġreducere": 7300,
      "Ġestimat": 7301,
      "Ġdocumentele": 7302,
      "Ġsemnificative": 7303,
      "vor": 7304,
      "ĠsalÄĥ": 7305,
      "Ġnerv": 7306,
      "Ġlat": 7307,
      "Ġrea": 7308,
      "Ġbut": 7309,
      "ĠRÄĥ": 7310,
      "Ġprimite": 7311,
      "Ġdiferit": 7312,
      "Ġsuspen": 7313,
      "Ġmarke": 7314,
      "ĠformatÄĥ": 7315,
      "Ġrealizare": 7316,
      "Ġcorpul": 7317,
      "Ġechipele": 7318,
      "Ġserviciului": 7319,
      "steazÄĥ": 7320,
      "ĠpusÄĥ": 7321,
      "ĠdepÄĥÅŁit": 7322,
      "Ġpensiilor": 7323,
      "ĠperformanÅ£Äĥ": 7324,
      "ĠconfirmÄĥ": 7325,
      "Ġlibera": 7326,
      "ĠjudecÄĥto": 7327,
      "ĠvariantÄĥ": 7328,
      "Ġtrofeul": 7329,
      "Ġucrain": 7330,
      "ĠcunoaÅŁte": 7331,
      "tarul": 7332,
      "rov": 7333,
      "ĠIatÄĥ": 7334,
      "Ġbic": 7335,
      "Ġcompl": 7336,
      "ÈĽionali": 7337,
      "ologicÄĥ": 7338,
      "copul": 7339,
      "ĠsÄĥptÄĥmÃ¢nii": 7340,
      "Ġputerii": 7341,
      "ĠdeclaraÅ£ii": 7342,
      "Ġlux": 7343,
      "ĠangajaÅ£ii": 7344,
      "ĠTotul": 7345,
      "ĠreÈĽeaua": 7346,
      "Ġindividual": 7347,
      "Ġpropag": 7348,
      "ĠcurÄĥ": 7349,
      "ĠSpor": 7350,
      "ĠEle": 7351,
      "Ġafle": 7352,
      "Ġvestul": 7353,
      "ĠDesi": 7354,
      "alizate": 7355,
      "ĠcaldÄĥ": 7356,
      "ĠinstituÈĽiei": 7357,
      "ĠnecesitÄĥ": 7358,
      "ĠpleacÄĥ": 7359,
      "Ġcorpor": 7360,
      "Ġprezente": 7361,
      "ĠsocietÄĥÅ£ii": 7362,
      "Ġidentifica": 7363,
      "Ġridica": 7364,
      "Ġcosturi": 7365,
      "ĠiniÈĽiativÄĥ": 7366,
      "ĠdepusÄĥ": 7367,
      "Ġsfert": 7368,
      "Ġsuspendare": 7369,
      "ĠromÃ¢neÈĻti": 7370,
      "ĠpÄĥrÄĥsit": 7371,
      "Ġinima": 7372,
      "ĠDocumentul": 7373,
      "Fo": 7374,
      "der": 7375,
      "ec": 7376,
      "atie": 7377,
      "ĠÃ®ndo": 7378,
      "ÈĽarea": 7379,
      "Ġpod": 7380,
      "Ġimpres": 7381,
      "Ġaju": 7382,
      "Ġpublici": 7383,
      "perÄĥ": 7384,
      "Ġ86": 7385,
      "Ġvalor": 7386,
      "ĠinstituÅ£iilor": 7387,
      "Ġeuroparlament": 7388,
      "Ġlocurile": 7389,
      "Ġstudiul": 7390,
      "ĠpersonalÄĥ": 7391,
      "Ġeclip": 7392,
      "Ġapropie": 7393,
      "Ġresponsabilitate": 7394,
      "Ġverifica": 7395,
      "Ġlanga": 7396,
      "Ġegalitate": 7397,
      "Ġdigitale": 7398,
      "ĠagriculturÄĥ": 7399,
      "ĠvicepreÅŁedinte": 7400,
      "Ġinteligente": 7401,
      "Ġjapone": 7402,
      "ĠdegrabÄĥ": 7403,
      "fal": 7404,
      "Ġpotri": 7405,
      "Ġdincolo": 7406,
      "Ġunitate": 7407,
      "ĠCÃ¢": 7408,
      "Ġbio": 7409,
      "Ġnef": 7410,
      "ĠsituaÈĽii": 7411,
      "ĠPremierul": 7412,
      "ĠneapÄĥrat": 7413,
      "Ġportarul": 7414,
      "Ġspecifice": 7415,
      "Ġconcept": 7416,
      "Ġclimat": 7417,
      "Ġprotoco": 7418,
      "ĠrecunoaÈĻte": 7419,
      "Ġutila": 7420,
      "Ġmunicipal": 7421,
      "ĠsubliniazÄĥ": 7422,
      "Ġfusese": 7423,
      "Ġsuveran": 7424,
      "Ġy": 7425,
      "ĠDis": 7426,
      "asele": 7427,
      "Ġintercon": 7428,
      "Ġcelule": 7429,
      "tatul": 7430,
      "Ġdezin": 7431,
      "Ġ84": 7432,
      "ologia": 7433,
      "Ġprofesi": 7434,
      "ĠÃ®ntÃ¢lniri": 7435,
      "ĠdoreÈĻte": 7436,
      "ĠevoluÅ£ia": 7437,
      "Ġmedalie": 7438,
      "ĠdedicatÄĥ": 7439,
      "Ġtitluri": 7440,
      "ĠnemulÅ£": 7441,
      "ote": 7442,
      "reÅŁte": 7443,
      "ĠconÈĽine": 7444,
      "Ġgim": 7445,
      "asi": 7446,
      "Ġleu": 7447,
      "Ġcosm": 7448,
      "ĠÃ®nregistreazÄĥ": 7449,
      "Ġcartea": 7450,
      "ĠscÄĥdea": 7451,
      "ĠÅŁtim": 7452,
      "Ġbeneficii": 7453,
      "Ġprofesional": 7454,
      "Ġcalend": 7455,
      "Ġeroare": 7456,
      "Ġinterzice": 7457,
      "Ġcombaterea": 7458,
      "Ġpofida": 7459,
      "ain": 7460,
      "fund": 7461,
      "Ġastea": 7462,
      "Ġson": 7463,
      "Ġser": 7464,
      "Ġinova": 7465,
      "Ġsemin": 7466,
      "Ġghi": 7467,
      "tabilÄĥ": 7468,
      "trem": 7469,
      "pari": 7470,
      "mpor": 7471,
      "Ġfapte": 7472,
      "oric": 7473,
      "Ġavan": 7474,
      "ferul": 7475,
      "Ġacelasi": 7476,
      "Ġobiectivele": 7477,
      "Ġinseamna": 7478,
      "ĠefectueazÄĥ": 7479,
      "Ġstrategie": 7480,
      "Ġierarh": 7481,
      "Ġfas": 7482,
      "Å£ate": 7483,
      "ĠPract": 7484,
      "Ġploa": 7485,
      "Ġmae": 7486,
      "Ġrecente": 7487,
      "ĠaveÈĽi": 7488,
      "zinta": 7489,
      "Ġplanurile": 7490,
      "Ġadministrare": 7491,
      "Ġprevederi": 7492,
      "ĠÃ®nvinsÄĥ": 7493,
      "ĠÃ®ntrebarea": 7494,
      "Ġsezonului": 7495,
      "Ġsuspendarea": 7496,
      "ĠpreÈĽurile": 7497,
      "Ġnegocieri": 7498,
      "Ġchinez": 7499,
      "ĠaprobatÄĥ": 7500,
      "Ġarticolul": 7501,
      "ĠreÈĽelele": 7502,
      "Ġindemniza": 7503,
      "ĠÃ®ÈĽi": 7504,
      "atat": 7505,
      "iari": 7506,
      "rup": 7507,
      "Ġpromite": 7508,
      "toc": 7509,
      "seÅŁte": 7510,
      "ptare": 7511,
      "atarii": 7512,
      "Ġ71": 7513,
      "Ġ78": 7514,
      "Ġmedicii": 7515,
      "Ġutilizare": 7516,
      "ĠinvestiÈĽiile": 7517,
      "Ġtab": 7518,
      "Ġadolesc": 7519,
      "ĠproducÄĥtorul": 7520,
      "ĠÃ®ncÄĥlcarea": 7521,
      "Ġmisiunii": 7522,
      "Ġresurselor": 7523,
      "Ġtermice": 7524,
      "Ġilegale": 7525,
      "Ġperioadei": 7526,
      "Ġiubit": 7527,
      "ĠPartida": 7528,
      "aÅ£ii": 7529,
      "Ġserve": 7530,
      "ĠÃ®nsemn": 7531,
      "Ġod": 7532,
      "Ġlap": 7533,
      "ĠsÄĥrit": 7534,
      "scop": 7535,
      "ĠcÃ¢ÈĽiva": 7536,
      "Ġcumva": 7537,
      "Ġnivelului": 7538,
      "Ġculturii": 7539,
      "Ġatacat": 7540,
      "ĠpoziÅ£ie": 7541,
      "Ġtrecere": 7542,
      "ĠdepÄĥÅŁi": 7543,
      "ĠdirectÄĥ": 7544,
      "Ġdiaspor": 7545,
      "Ġdovezi": 7546,
      "Ð°": 7547,
      "icle": 7548,
      "Ġomen": 7549,
      "Ġinstitui": 7550,
      "Ġtul": 7551,
      "Ġautorii": 7552,
      "isme": 7553,
      "Ġadica": 7554,
      "Ġadmis": 7555,
      "ĠFacebook": 7556,
      "ĠlegatÄĥ": 7557,
      "ĠInter": 7558,
      "Ġrevoc": 7559,
      "ĠReporter": 7560,
      "ĠplanetÄĥ": 7561,
      "Ġpractici": 7562,
      "Ġraportului": 7563,
      "Ġacumulat": 7564,
      "ĠcÃ¢ntÄĥ": 7565,
      "Ġdeprec": 7566,
      "ĠgrÄĥdini": 7567,
      "milor": 7568,
      "ĠÈĽinut": 7569,
      "Ġderan": 7570,
      "ĠcearÄĥ": 7571,
      "Ġconvenit": 7572,
      "Ġpreia": 7573,
      "Ġpresti": 7574,
      "Ġactele": 7575,
      "difica": 7576,
      "uÄĥrii": 7577,
      "Ġsecolului": 7578,
      "Ġbuz": 7579,
      "Ġavere": 7580,
      "Ġpierderi": 7581,
      "Ġaparat": 7582,
      "Ġemise": 7583,
      "Ġconsumatorilor": 7584,
      "Ġfemeile": 7585,
      "Ġpurtat": 7586,
      "ĠTotuÅŁi": 7587,
      "Ġcolaborarea": 7588,
      "ĠJucÄĥ": 7589,
      "Ġconsiderare": 7590,
      "Ġprag": 7591,
      "Ġmanagement": 7592,
      "ĠcÃ®teva": 7593,
      "ĠÃ®ncalcÄĥ": 7594,
      "gran": 7595,
      "ieÈĻte": 7596,
      "Ġbat": 7597,
      "Ġalimente": 7598,
      "iori": 7599,
      "Ġmese": 7600,
      "orit": 7601,
      "Ġnumirea": 7602,
      "ĠÃ®nceapÄĥ": 7603,
      "ting": 7604,
      "Ġaprobate": 7605,
      "ĠTemperat": 7606,
      "Ġlumin": 7607,
      "Ġactor": 7608,
      "Ġrespecte": 7609,
      "Ġmodificat": 7610,
      "ĠrÄĥspundÄĥ": 7611,
      "Ġanalize": 7612,
      "Ġverde": 7613,
      "Ġtaxa": 7614,
      "Ġmedicamente": 7615,
      "Ġdocumentul": 7616,
      "Ġperspectiva": 7617,
      "Ġcibernetice": 7618,
      "Ġdictat": 7619,
      "Ġsemifinalele": 7620,
      "rÃ¢": 7621,
      "Ġalar": 7622,
      "Ġpui": 7623,
      "Ġpici": 7624,
      "Ġdevin": 7625,
      "unica": 7626,
      "ĠcÄĥrei": 7627,
      "Å£iunilor": 7628,
      "Ġcoment": 7629,
      "Ġterori": 7630,
      "Ġimun": 7631,
      "zelor": 7632,
      "ĠroÅŁ": 7633,
      "Ġintervi": 7634,
      "mag": 7635,
      "Ġpropun": 7636,
      "Ġactul": 7637,
      "ĠacordatÄĥ": 7638,
      "Ġexplor": 7639,
      "Ġreguli": 7640,
      "ĠlegislaÅ£ia": 7641,
      "Ġrecupe": 7642,
      "ĠNoua": 7643,
      "ĠdigitalÄĥ": 7644,
      "Ġtextul": 7645,
      "Ġfundamentale": 7646,
      "ĠgrijÄĥ": 7647,
      "Ġbibliote": 7648,
      "rÃ¢nd": 7649,
      "ĠÅ£inut": 7650,
      "Ġmln": 7651,
      "Ġrein": 7652,
      "Ġrepor": 7653,
      "Ġbucure": 7654,
      "Ġneschimb": 7655,
      "ĠsusÅ£inÄĥ": 7656,
      "Ġbunuri": 7657,
      "ĠbÄĥie": 7658,
      "ĠProble": 7659,
      "ĠrÄĥspundere": 7660,
      "Ġatacuri": 7661,
      "Ġcompletat": 7662,
      "ĠacÈĽiune": 7663,
      "Ġvolun": 7664,
      "Ġrepetat": 7665,
      "Ġevenimentele": 7666,
      "Ġpovestea": 7667,
      "ĠÃ®nÈĽelege": 7668,
      "Ġremarca": 7669,
      "Ġdimensiunea": 7670,
      "Ġguvernamentale": 7671,
      "Ġweekend": 7672,
      "Pro": 7673,
      "fata": 7674,
      "ju": 7675,
      "nicÄĥ": 7676,
      "Ġunion": 7677,
      "Ġrelig": 7678,
      "adi": 7679,
      "Ġmetal": 7680,
      "dite": 7681,
      "Ġadmi": 7682,
      "ĠbancÄĥ": 7683,
      "Ġregional": 7684,
      "Ġcumpere": 7685,
      "ĠnaÈĻte": 7686,
      "Ġ94": 7687,
      "ĠstabilitÄĥ": 7688,
      "deap": 7689,
      "Ġcentimetri": 7690,
      "ĠmedicalÄĥ": 7691,
      "Ġinsol": 7692,
      "ĠprogramatÄĥ": 7693,
      "ĠexperienÈĽa": 7694,
      "Ġdiagno": 7695,
      "ĠprevÄĥzut": 7696,
      "Ġdestinate": 7697,
      "Ġmemoria": 7698,
      "Ġfruntea": 7699,
      "seazÄĥ": 7700,
      "larÄĥ": 7701,
      "Ġpromul": 7702,
      "Ġintelect": 7703,
      "ĠOr": 7704,
      "ĠveÈĽi": 7705,
      "Ġ193": 7706,
      "Ġanularea": 7707,
      "ĠromÃ¢nca": 7708,
      "ĠcomunicÄĥ": 7709,
      "ĠdiscutÄĥm": 7710,
      "Ġpatrul": 7711,
      "ĠruseascÄĥ": 7712,
      "Ġcifre": 7713,
      "Ġadversare": 7714,
      "Ġambasador": 7715,
      "ĠstrÃ¢ns": 7716,
      "Ġoptimile": 7717,
      "Ġcombustibil": 7718,
      "et": 7719,
      "smului": 7720,
      "trilor": 7721,
      "Ġ]": 7722,
      "ert": 7723,
      "Ġreie": 7724,
      "ioase": 7725,
      "Ġign": 7726,
      "Ġvac": 7727,
      "Ġcredem": 7728,
      "Ġcomplic": 7729,
      "Ġraspun": 7730,
      "Ġ07": 7731,
      "Ġdreptului": 7732,
      "ĠÅŀlem": 7733,
      "ĠinstituÅ£iei": 7734,
      "ĠorganizeazÄĥ": 7735,
      "ĠjudeÅ£e": 7736,
      "ĠgÄĥsesc": 7737,
      "Ġafacerilor": 7738,
      "Ġcule": 7739,
      "Ġmondiale": 7740,
      "Ġpopulare": 7741,
      "Ġclip": 7742,
      "Ġversiunea": 7743,
      "ĠvÃ¢nzarea": 7744,
      "ĠÃ®ntreprinderii": 7745,
      "Ġexpert": 7746,
      "Ġconsultat": 7747,
      "ĠdepÄĥÅŁ": 7748,
      "ĠprecizÃ¢nd": 7749,
      "ĠciberneticÄĥ": 7750,
      "Ġspecificat": 7751,
      "Ġbelgi": 7752,
      "Ġprofesionale": 7753,
      "trul": 7754,
      "ĠStu": 7755,
      "ĠtemÄĥ": 7756,
      "Ġnep": 7757,
      "Ġcompen": 7758,
      "nesc": 7759,
      "Ġlucrul": 7760,
      "ĠprivatÄĥ": 7761,
      "ÈĽionate": 7762,
      "Ġ81": 7763,
      "Ġautobu": 7764,
      "Ġcomunicatul": 7765,
      "ĠindicÄĥ": 7766,
      "Ġcontraven": 7767,
      "Ġtitul": 7768,
      "Ġcapabil": 7769,
      "Ġteritoriale": 7770,
      "ĠprezenÅ£i": 7771,
      "Ġdiame": 7772,
      "Ġabuzi": 7773,
      "Ġdemocratic": 7774,
      "ĠpÄĥrÈĽi": 7775,
      "Ġconcerte": 7776,
      "Ġprocurorilor": 7777,
      "Ġsporirea": 7778,
      "Ġcircuitul": 7779,
      "Ġzah": 7780,
      "spec": 7781,
      "Å£atÄĥ": 7782,
      "ĠCine": 7783,
      "ilan": 7784,
      "ĠsÄĥl": 7785,
      "ĠSub": 7786,
      "ĠbÄĥtÄĥ": 7787,
      "ios": 7788,
      "Ġiri": 7789,
      "Ġexterior": 7790,
      "Ġmodifica": 7791,
      "Ġintervenit": 7792,
      "Ġuitat": 7793,
      "oanele": 7794,
      "ĠratÄĥ": 7795,
      "Ġdator": 7796,
      "Ġabon": 7797,
      "ĠreuÈĻ": 7798,
      "ĠcercetÄĥtor": 7799,
      "Ġsanat": 7800,
      "ĠdesfÄĥÅŁurat": 7801,
      "Ġtraficul": 7802,
      "Ġclimatice": 7803,
      "ĠzÄĥp": 7804,
      "bul": 7805,
      "cra": 7806,
      "grad": 7807,
      "ĠÃ®nconj": 7808,
      "Å£are": 7809,
      "Ġoare": 7810,
      "ĠCÃ¢t": 7811,
      "Ġpedeap": 7812,
      "ĠPu": 7813,
      "ĠAmb": 7814,
      "ĠconÈĽin": 7815,
      "Ġfap": 7816,
      "Ġcostul": 7817,
      "Ġveche": 7818,
      "Ġtransforma": 7819,
      "minte": 7820,
      "Ġ83": 7821,
      "ĠInve": 7822,
      "Ġcriza": 7823,
      "ĠjumÄĥtatea": 7824,
      "lalt": 7825,
      "ĠediÅ£ia": 7826,
      "ĠregulÄĥ": 7827,
      "finan": 7828,
      "Ġslabe": 7829,
      "Ġinterior": 7830,
      "ĠgÄĥsim": 7831,
      "Ġcompozit": 7832,
      "ĠlargÄĥ": 7833,
      "ĠPractic": 7834,
      "Ġ=": 7835,
      "Ġnati": 7836,
      "Ġcutrem": 7837,
      "ĠAmintim": 7838,
      "Ġautorul": 7839,
      "Ġprins": 7840,
      "elul": 7841,
      "ĠDeÈĻi": 7842,
      "Ġ91": 7843,
      "Ġenorm": 7844,
      "ĠinvestiÅ£iile": 7845,
      "Ġsenza": 7846,
      "ĠplÄĥcut": 7847,
      "Ġcomercian": 7848,
      "ĠÃ®ncheia": 7849,
      "Ġteritoriu": 7850,
      "Ġcampionat": 7851,
      "Ġampren": 7852,
      "Ġsuplimentar": 7853,
      "ĠeducaÈĽie": 7854,
      "Ġmanifest": 7855,
      "Ġrestabil": 7856,
      "Ġdispozitivele": 7857,
      "Ġlimitele": 7858,
      "Ġmemorie": 7859,
      "Å£ului": 7860,
      "Ġlotul": 7861,
      "Ġreform": 7862,
      "Ġsuficiente": 7863,
      "ptarea": 7864,
      "Ġraportat": 7865,
      "Å£ionatÄĥ": 7866,
      "Ġincomp": 7867,
      "maticÄĥ": 7868,
      "Ġtelefonului": 7869,
      "Ġsumele": 7870,
      "ĠexistenÅ£a": 7871,
      "ĠpÄĥstra": 7872,
      "ĠÃ®nÈĽeles": 7873,
      "Ġfaliment": 7874,
      "ĠprotecÈĽie": 7875,
      "Ġaerian": 7876,
      "ĠcÄĥlÄĥtori": 7877,
      "Ġfestivalului": 7878,
      "Ġitalian": 7879,
      "Ġorbite": 7880,
      "Ġpericuloase": 7881,
      "ĠreÅ£eaua": 7882,
      "Ġimobiliare": 7883,
      "ĠhÃ¢rtie": 7884,
      "Ġbara": 7885,
      "Ġid": 7886,
      "Ġidea": 7887,
      "site": 7888,
      "aritate": 7889,
      "zeze": 7890,
      "Ġsue": 7891,
      "Ġprezentarea": 7892,
      "Ġautoritatea": 7893,
      "Ġconsisten": 7894,
      "ĠprincipalÄĥ": 7895,
      "ĠaplicaÅ£ia": 7896,
      "Ġcriterii": 7897,
      "Ġintervalului": 7898,
      "ĠtrÄĥiesc": 7899,
      "Ġmijloca": 7900,
      "Ġscade": 7901,
      "Ġlitru": 7902,
      "Ġemisiunea": 7903,
      "iÅŁti": 7904,
      "Ġ[": 7905,
      "terul": 7906,
      "Ġfan": 7907,
      "Ġcuraj": 7908,
      "Ġreme": 7909,
      "ĠsÄĥn": 7910,
      "Ġsesiune": 7911,
      "Å£ioneze": 7912,
      "rÄĥrile": 7913,
      "Ġmelo": 7914,
      "plica": 7915,
      "Ġnavi": 7916,
      "Ġsecolul": 7917,
      "Ġpremiu": 7918,
      "ĠmajoritÄĥ": 7919,
      "Ġconstrui": 7920,
      "Ġterenului": 7921,
      "Ġcomisia": 7922,
      "Ġblocat": 7923,
      "ĠpÄĥrerea": 7924,
      "Ġarate": 7925,
      "atia": 7926,
      "tarilor": 7927,
      "Ġdoam": 7928,
      "andu": 7929,
      "Ġprogramele": 7930,
      "ĠÃ®nregistrarea": 7931,
      "Ġparlamentarii": 7932,
      "Ġrefle": 7933,
      "Ġcorecte": 7934,
      "ĠformaÈĽiunii": 7935,
      "ĠlipsÄĥ": 7936,
      "Ġindustrie": 7937,
      "iÈĻtii": 7938,
      "Ġproducere": 7939,
      "ĠaÅŁteptat": 7940,
      "Ġadministrativ": 7941,
      "ĠfavoritÄĥ": 7942,
      "Ġnormele": 7943,
      "Ġrepriza": 7944,
      "ĠvicepreÅŁedintele": 7945,
      "ĠStudiul": 7946,
      "ĠsÄĥnÄĥtÄĥ": 7947,
      "jÄĥ": 7948,
      "uitÄĥ": 7949,
      "Ġfura": 7950,
      "Ġtan": 7951,
      "ĠMaj": 7952,
      "dez": 7953,
      "Ġpred": 7954,
      "Ġanali": 7955,
      "Ġfiul": 7956,
      "Ġurme": 7957,
      "Ġzg": 7958,
      "Ġzice": 7959,
      "Ġsistemelor": 7960,
      "Ġagricol": 7961,
      "ĠcetÄĥÅ£e": 7962,
      "ĠinstituÅ£ie": 7963,
      "Ġexpuse": 7964,
      "Ġnevoia": 7965,
      "ĠrespectÄĥ": 7966,
      "Ġplastic": 7967,
      "ĠReprezent": 7968,
      "Ġatragerea": 7969,
      "Ġmonede": 7970,
      "ĠjudecÄĥtorilor": 7971,
      "Ġiti": 7972,
      "Ġexporturile": 7973,
      "ĠprotecÅ£ie": 7974,
      "Ġstop": 7975,
      "Ġstandardele": 7976,
      "Ġmecanism": 7977,
      "Ġcarierei": 7978,
      "Ġinregistrat": 7979,
      "ĠgÄĥzdu": 7980,
      "ĠsticlÄĥ": 7981,
      "ÄĥrÄĥ": 7982,
      "Ġabil": 7983,
      "Ġvina": 7984,
      "Ġvizat": 7985,
      "ĠCite": 7986,
      "ĠScopul": 7987,
      "ĠdespÄĥ": 7988,
      "Ġdepend": 7989,
      "Ġarest": 7990,
      "oreze": 7991,
      "Ġuci": 7992,
      "Ġsupus": 7993,
      "Ġprotestul": 7994,
      "antului": 7995,
      "Ġ140": 7996,
      "Ġefectul": 7997,
      "Ġsolicita": 7998,
      "ĠputeÅ£i": 7999,
      "ĠÃ®ncheierea": 8000,
      "ĠagenÈĽii": 8001,
      "Ġduminica": 8002,
      "ĠExper": 8003,
      "Ġtarif": 8004,
      "Ġmodernizare": 8005,
      "Ġfactori": 8006,
      "Ġtrofeu": 8007,
      "ĠfabricÄĥ": 8008,
      "Ġcarbon": 8009,
      "ĠVorb": 8010,
      "Ġextrate": 8011,
      "Ġspirit": 8012,
      "Ġtelecomunica": 8013,
      "ms": 8014,
      "oce": 8015,
      "sil": 8016,
      "Ġ@": 8017,
      "Ġster": 8018,
      "Ġemb": 8019,
      "Ġanuale": 8020,
      "ĠNumÄĥrul": 8021,
      "isia": 8022,
      "Ġproiec": 8023,
      "Ġoricum": 8024,
      "Ġvalorilor": 8025,
      "Ġsistemele": 8026,
      "Ġschimbul": 8027,
      "Ġliste": 8028,
      "Ġpierdu": 8029,
      "ĠpieÅ£ei": 8030,
      "Ġluptat": 8031,
      "Ġprofita": 8032,
      "ĠconstrucÈĽie": 8033,
      "ĠlegÄĥtura": 8034,
      "ĠavertizeazÄĥ": 8035,
      "ĠMeciul": 8036,
      "Ġpilot": 8037,
      "ĠmulÅ£umit": 8038,
      "Ġriscuri": 8039,
      "ĠprÄĥbu": 8040,
      "Ġdenumirea": 8041,
      "Ġbuzun": 8042,
      "90": 8043,
      "Ġante": 8044,
      "Ġtreime": 8045,
      "Ġjun": 8046,
      "ĠurmatÄĥ": 8047,
      "ĠdescÄĥr": 8048,
      "ĠnaÅŁte": 8049,
      "Ġieft": 8050,
      "ĠmÄĥsurilor": 8051,
      "Ġgeop": 8052,
      "ĠdeclaraÅ£ie": 8053,
      "ĠdeclaraÈĽie": 8054,
      "Ġcluburi": 8055,
      "Ġefectuarea": 8056,
      "Ġ350": 8057,
      "Ġtrimise": 8058,
      "rgan": 8059,
      "ĠclienÅ£i": 8060,
      "Ġtransferul": 8061,
      "Ġprocuror": 8062,
      "ĠspecialiÅŁti": 8063,
      "ĠmÄĥrfurilor": 8064,
      "Ġdocumentelor": 8065,
      "Ġglobale": 8066,
      "Ġperioade": 8067,
      "Ġbolna": 8068,
      "Ġportofol": 8069,
      "Ġvideoclip": 8070,
      "ziile": 8071,
      "ĠsÄĥvÃ¢r": 8072,
      "ĠBa": 8073,
      "Ġtestat": 8074,
      "ĠOdatÄĥ": 8075,
      "Ġpolone": 8076,
      "Ġcadrului": 8077,
      "ĠcreÅŁteri": 8078,
      "Ġplanuri": 8079,
      "Ġsuprafata": 8080,
      "Ġstudiat": 8081,
      "Ġlocalitate": 8082,
      "Ġajungem": 8083,
      "Ġfemeilor": 8084,
      "Ġ2021": 8085,
      "Ġtreaba": 8086,
      "Ġchestiuni": 8087,
      "ĠÃ®ntÃ®ln": 8088,
      "Ġautostrada": 8089,
      "Ġasociat": 8090,
      "ĠdespÄĥgu": 8091,
      "Ġdemite": 8092,
      "Ġflo": 8093,
      "Ġperic": 8094,
      "ĠconÈĽinut": 8095,
      "tÄĥÈĽi": 8096,
      "tabile": 8097,
      "Ġvari": 8098,
      "Ġmole": 8099,
      "Ġrog": 8100,
      "Ġtoti": 8101,
      "Ġcalifica": 8102,
      "Ġ96": 8103,
      "matice": 8104,
      "ĠrevinÄĥ": 8105,
      "ĠÈĻtiri": 8106,
      "Ġimplementate": 8107,
      "ĠsoluÈĽie": 8108,
      "ĠbÄĥncilor": 8109,
      "Ġlitri": 8110,
      "Ġoportunitate": 8111,
      "Ġdebut": 8112,
      "Ġdiplomat": 8113,
      "Ġfotbalul": 8114,
      "Ġexterni": 8115,
      "Ġinstalat": 8116,
      "Ġspons": 8117,
      "Ġprestig": 8118,
      "Ġpace": 8119,
      "Ġdeced": 8120,
      "ĠÃ®nmatricul": 8121,
      "alitatea": 8122,
      "ĠMar": 8123,
      "vale": 8124,
      "Ġ92": 8125,
      "ĠbazeazÄĥ": 8126,
      "Ġorganizare": 8127,
      "Ġbunurilor": 8128,
      "ĠcunoÈĻtin": 8129,
      "ĠcunoÅŁtin": 8130,
      "ĠsportivÄĥ": 8131,
      "Ġsportivii": 8132,
      "Ġproducerea": 8133,
      "ĠsuprafaÈĽÄĥ": 8134,
      "ĠÃ®ndrÄĥ": 8135,
      "ĠfinanÈĽarea": 8136,
      "Ġstrada": 8137,
      "Ġgeopolit": 8138,
      "turat": 8139,
      "Â»": 8140,
      "Ġari": 8141,
      "ĠÃ®nlÄĥ": 8142,
      "Å£itÄĥ": 8143,
      "Ġnun": 8144,
      "entini": 8145,
      "Ġunin": 8146,
      "ĠSiste": 8147,
      "Ġali": 8148,
      "Ġacciz": 8149,
      "Ġamnist": 8150,
      "Ġdeplin": 8151,
      "Ġlov": 8152,
      "ĠinstituÈĽie": 8153,
      "ĠrelaÅ£iilor": 8154,
      "ĠcÃ¢ÅŁtige": 8155,
      "Ġfirmelor": 8156,
      "ĠatenÅ£ie": 8157,
      "ĠameninÅ£Äĥ": 8158,
      "ĠPreciz": 8159,
      "Ġindustriei": 8160,
      "Ġlovitura": 8161,
      "ĠmÃ¢inile": 8162,
      "ĠopoziÈĽie": 8163,
      "ĠclÄĥdiri": 8164,
      "Ġpericulos": 8165,
      "Re": 8166,
      "spl": 8167,
      "vid": 8168,
      "Ġfanii": 8169,
      "Ġvii": 8170,
      "Ġvei": 8171,
      "entului": 8172,
      "Ġincident": 8173,
      "ĠtÄĥu": 8174,
      "Ġconexi": 8175,
      "cÄĥrilor": 8176,
      "ocul": 8177,
      "Ġactelor": 8178,
      "Ġaparte": 8179,
      "ĠamÄĥn": 8180,
      "Ġpercep": 8181,
      "Ġdesprin": 8182,
      "Ġlegilor": 8183,
      "Ġincul": 8184,
      "ĠoraÅŁe": 8185,
      "ĠinformaÈĽiile": 8186,
      "Ġ112": 8187,
      "Ġcereb": 8188,
      "Ġreflect": 8189,
      "ĠofertÄĥ": 8190,
      "Ġpopular": 8191,
      "ĠÃ®ntreprinse": 8192,
      "Ġsuccesul": 8193,
      "Ġamplo": 8194,
      "ĠdisponibilÄĥ": 8195,
      "Ġsurprins": 8196,
      "Ġvulcan": 8197,
      "Ġeventuale": 8198,
      "Ġbilete": 8199,
      "Ġautomobil": 8200,
      "Ġarhitect": 8201,
      "fonul": 8202,
      "tali": 8203,
      "Ġpari": 8204,
      "Ġfosta": 8205,
      "otice": 8206,
      "vederea": 8207,
      "Ġvazut": 8208,
      "Ġimi": 8209,
      "Ġscan": 8210,
      "ĠcotÄĥ": 8211,
      "Ġatitudine": 8212,
      "Ġ97": 8213,
      "ĠvorbeascÄĥ": 8214,
      "Ġviza": 8215,
      "Ġpublicitate": 8216,
      "ĠrelaÅ£iile": 8217,
      "Ġterenuri": 8218,
      "Ġnegre": 8219,
      "ĠatenÈĽie": 8220,
      "Ġcalificare": 8221,
      "Ġbucura": 8222,
      "ĠasigurÄĥrii": 8223,
      "ĠhotÄĥrÃ¢t": 8224,
      "ĠredusÄĥ": 8225,
      "ĠadministraÈĽiei": 8226,
      "ĠmulÈĽumesc": 8227,
      "ĠplÄĥtesc": 8228,
      "Ġprocurori": 8229,
      "ĠAcolo": 8230,
      "ĠgÃ¢ndesc": 8231,
      "Ġindustriale": 8232,
      "ĠprimÄĥvarÄĥ": 8233,
      "Ġastronau": 8234,
      "Ġucrainene": 8235,
      "Ġmolecul": 8236,
      "jun": 8237,
      "anÈĽe": 8238,
      "Ġmiz": 8239,
      "tip": 8240,
      "Ġtar": 8241,
      "ĠcÄĥpit": 8242,
      "Ġpresta": 8243,
      "ĠÃ®ntregii": 8244,
      "Ġrecomp": 8245,
      "ĠanunÅ£a": 8246,
      "ĠiniÈĽie": 8247,
      "Ġobiectul": 8248,
      "Ġstudiile": 8249,
      "ĠTotuÈĻi": 8250,
      "ĠpregÄĥtirea": 8251,
      "Ġsemifin": 8252,
      "Ġ1989": 8253,
      "ĠÃ®nlocuit": 8254,
      "Ġoricine": 8255,
      "Ġevita": 8256,
      "Ġnecuno": 8257,
      "ĠfiecÄĥrui": 8258,
      "Ġploaie": 8259,
      "Ast": 8260,
      "mÃ®n": 8261,
      "Ġdona": 8262,
      "stici": 8263,
      "Ġed": 8264,
      "Å£ui": 8265,
      "Ġolig": 8266,
      "Ġcongre": 8267,
      "umului": 8268,
      "organ": 8269,
      "oritatea": 8270,
      "Ġplimb": 8271,
      "mani": 8272,
      "tatorii": 8273,
      "Ġinche": 8274,
      "Ġprezentare": 8275,
      "Ġchip": 8276,
      "ginile": 8277,
      "Ġambul": 8278,
      "Ġexplic": 8279,
      "Ġidentitate": 8280,
      "ĠacuzÄĥ": 8281,
      "Ġextins": 8282,
      "Ġextinde": 8283,
      "ĠpozitivÄĥ": 8284,
      "ĠfrancezÄĥ": 8285,
      "ĠexprimÄĥ": 8286,
      "ĠboalÄĥ": 8287,
      "Ġobligatorii": 8288,
      "Ġchineze": 8289,
      "ĠvÃ¢nzÄĥrile": 8290,
      "ĠÃ®ncÄĥrcare": 8291,
      "ĠprioritÄĥÈĽile": 8292,
      "Ġfericire": 8293,
      "Ġuniversitar": 8294,
      "Ġscum": 8295,
      "ricÄĥ": 8296,
      "ĠeÈĻ": 8297,
      "ĠconstÄĥ": 8298,
      "Ġleului": 8299,
      "Ġstric": 8300,
      "Ġtreptat": 8301,
      "Ġschi": 8302,
      "tatele": 8303,
      "Ġmilitar": 8304,
      "Ġcald": 8305,
      "Ġmarcate": 8306,
      "Ġimpri": 8307,
      "ĠdiscuÈĽiilor": 8308,
      "Ġactri": 8309,
      "Ġtehnici": 8310,
      "Ġfondurile": 8311,
      "ĠlocalitÄĥÈĽi": 8312,
      "ĠAutoritÄĥ": 8313,
      "Ġabsor": 8314,
      "ĠclienÅ£ii": 8315,
      "Ġspectacole": 8316,
      "ĠÅŁanse": 8317,
      "Ġdiviz": 8318,
      "Ġorbita": 8319,
      "Ġorganele": 8320,
      "Ġconfrunt": 8321,
      "Ġodih": 8322,
      "aie": 8323,
      "oh": 8324,
      "Ġcru": 8325,
      "ÅŁat": 8326,
      "ĠSur": 8327,
      "adge": 8328,
      "Ġgale": 8329,
      "cire": 8330,
      "diatÄĥ": 8331,
      "Ġnera": 8332,
      "Ġtren": 8333,
      "Ġcoa": 8334,
      "Ġadul": 8335,
      "eniu": 8336,
      "ĠminoritÄĥ": 8337,
      "tinut": 8338,
      "plane": 8339,
      "ĠoricÄĥ": 8340,
      "Ġgrele": 8341,
      "Ġconstruirea": 8342,
      "Ġcereri": 8343,
      "ĠscÄĥderea": 8344,
      "ĠProp": 8345,
      "Ġatacantul": 8346,
      "ĠsusÈĽinere": 8347,
      "Ġofi": 8348,
      "ĠcompetiÈĽie": 8349,
      "Ġvicepremierul": 8350,
      "ĠmoldoveneÅŁti": 8351,
      "Ġopinii": 8352,
      "ĠeducaÅ£ie": 8353,
      "ĠrecomandÄĥ": 8354,
      "ĠdimineaÈĽÄĥ": 8355,
      "Ġerori": 8356,
      "Ġfenomenul": 8357,
      "ĠucraineanÄĥ": 8358,
      "ĠÃ®ndemnat": 8359,
      "ĠReamintim": 8360,
      "Ġrelatat": 8361,
      "Ġpatrulea": 8362,
      "ĠÃ®ndea": 8363,
      "ĠeÅŁ": 8364,
      "Ġnins": 8365,
      "Ġoc": 8366,
      "Ġox": 8367,
      "Ġlire": 8368,
      "Ġreven": 8369,
      "ĠDra": 8370,
      "Ġceh": 8371,
      "Ġconven": 8372,
      "aming": 8373,
      "Ġcompus": 8374,
      "Ġminci": 8375,
      "Ġelevi": 8376,
      "ĠactivÄĥ": 8377,
      "Ġtras": 8378,
      "Ġsensibil": 8379,
      "Ġconstruct": 8380,
      "uzia": 8381,
      "ĠcentralÄĥ": 8382,
      "ĠcercetÄĥtorilor": 8383,
      "ĠÃ®ncercare": 8384,
      "Ġfurat": 8385,
      "Ġposturi": 8386,
      "ĠevoluÈĽia": 8387,
      "ĠcriticÄĥ": 8388,
      "ĠÃ®ndeplini": 8389,
      "ĠÅŁansÄĥ": 8390,
      "Ġpacien": 8391,
      "Ġchestiune": 8392,
      "Ġfinalizarea": 8393,
      "Ġvictime": 8394,
      "Ġliterat": 8395,
      "Ġmarketing": 8396,
      "aÅ£ia": 8397,
      "ÑĢ": 8398,
      "âĢĻ": 8399,
      "Ġanticip": 8400,
      "Ġtem": 8401,
      "ficat": 8402,
      "Ġuita": 8403,
      "ĠfaceÈĽi": 8404,
      "Ġmodului": 8405,
      "ÅŁedintele": 8406,
      "Ġrar": 8407,
      "Ġtrai": 8408,
      "Äĥria": 8409,
      "Ġconstruite": 8410,
      "Ġ110": 8411,
      "ĠsoÅ£ia": 8412,
      "Ġaparate": 8413,
      "Ã®ndu": 8414,
      "Ġpreluarea": 8415,
      "ĠcifrÄĥ": 8416,
      "Ġegalat": 8417,
      "ĠintervenÅ£ie": 8418,
      "Å£ionala": 8419,
      "Ġdestinat": 8420,
      "ĠcÄĥutare": 8421,
      "ĠNumai": 8422,
      "Pe": 8423,
      "cal": 8424,
      "ola": 8425,
      "sie": 8426,
      "ĠdeÅ£inÄĥ": 8427,
      "strÄĥ": 8428,
      "itco": 8429,
      "Ġela": 8430,
      "iaÅ£i": 8431,
      "Ġlac": 8432,
      "ĠsÄĥrÄĥ": 8433,
      "Ġpredic": 8434,
      "ambl": 8435,
      "Ġexportat": 8436,
      "Ġpara": 8437,
      "enera": 8438,
      "Ġputeau": 8439,
      "Ġ89": 8440,
      "Ġsimte": 8441,
      "Ġactori": 8442,
      "ĠcreÅŁterii": 8443,
      "Ġangajamentele": 8444,
      "ĠrÄĥspunsul": 8445,
      "Ġprofesori": 8446,
      "Ġrezolva": 8447,
      "Ġresponsabilitatea": 8448,
      "ovat": 8449,
      "Ġcopilul": 8450,
      "Ġreduse": 8451,
      "ĠiniÅ£iativa": 8452,
      "Ġargumente": 8453,
      "Ġaccentuat": 8454,
      "Ġdedicate": 8455,
      "ĠDeclaraÈĽia": 8456,
      "Ġjudiciar": 8457,
      "Ġceremonia": 8458,
      "crat": 8459,
      "oza": 8460,
      "Ġateri": 8461,
      "Ġsoi": 8462,
      "ĠdeÈĽin": 8463,
      "orup": 8464,
      "Ġfla": 8465,
      "arsit": 8466,
      "ĠeÅŁti": 8467,
      "ĠconÅ£ine": 8468,
      "ficare": 8469,
      "untul": 8470,
      "asta": 8471,
      "ĠOri": 8472,
      "Ġminte": 8473,
      "ĠfÄĥce": 8474,
      "Ġexpune": 8475,
      "ĠcreÈĻterii": 8476,
      "Ġprincipiile": 8477,
      "ĠjustiÅ£ie": 8478,
      "Ġfizic": 8479,
      "ĠdesfÄĥÈĻurarea": 8480,
      "Ġcuprins": 8481,
      "Ġcandidatura": 8482,
      "Ġbere": 8483,
      "Ġprovocare": 8484,
      "Ġmonitorizare": 8485,
      "ĠrestrÃ¢n": 8486,
      "ĠdeosebitÄĥ": 8487,
      "ĠapariÅ£ia": 8488,
      "ĠfoloseÅŁte": 8489,
      "Ġserioase": 8490,
      "Ġsegmentul": 8491,
      "Ġsuperior": 8492,
      "ĠasemÄĥnÄĥtoare": 8493,
      "Ġderanj": 8494,
      "ĠPrecizÄĥm": 8495,
      "bol": 8496,
      "gl": 8497,
      "js": 8498,
      "liver": 8499,
      "Ġeco": 8500,
      "cuta": 8501,
      "ĠVrem": 8502,
      "Ġinterdic": 8503,
      "Ġsuspect": 8504,
      "Ġraf": 8505,
      "Ġactivi": 8506,
      "ĠdezvoltÄĥ": 8507,
      "ĠrealizeazÄĥ": 8508,
      "Ġ130": 8509,
      "ĠforÈĽÄĥ": 8510,
      "ĠscÄĥzute": 8511,
      "ĠformaÅ£ia": 8512,
      "ĠintereseazÄĥ": 8513,
      "Ġtransportului": 8514,
      "Ġprelua": 8515,
      "Ġimpozitului": 8516,
      "Ġalocat": 8517,
      "Ġregimului": 8518,
      "Ġargentini": 8519,
      "Ġprocesele": 8520,
      "ĠautostradÄĥ": 8521,
      "ĠRomÃ¢nca": 8522,
      "Ġcotidi": 8523,
      "Ġcompromis": 8524,
      "Ġieftine": 8525,
      "von": 8526,
      "ĠÈ": 8527,
      "Ġdai": 8528,
      "Ġofici": 8529,
      "Ġunice": 8530,
      "scutÄĥ": 8531,
      "Ġexpul": 8532,
      "siste": 8533,
      "Ġtrec": 8534,
      "ptom": 8535,
      "ĠÃ®ntune": 8536,
      "Ġultra": 8537,
      "ĠÃ®ntruni": 8538,
      "Ġmarti": 8539,
      "Ġspecie": 8540,
      "Ġdistribui": 8541,
      "ĠforÅ£Äĥ": 8542,
      "Ġprocedurilor": 8543,
      "ĠmajorÄĥ": 8544,
      "Ġregulile": 8545,
      "ĠjudecÄĥtor": 8546,
      "Ġadministrative": 8547,
      "ĠgÄĥsite": 8548,
      "ĠdispoziÅ£ie": 8549,
      "Ġfirmei": 8550,
      "Ġeventual": 8551,
      "Ġcreierului": 8552,
      "aza": 8553,
      "Ñģ": 8554,
      "Ġdul": 8555,
      "Ġpr": 8556,
      "ÈĽare": 8557,
      "raÅ£i": 8558,
      "Ġcubi": 8559,
      "ĠÈĻir": 8560,
      "Ġsed": 8561,
      "sec": 8562,
      "ĠaparÄĥ": 8563,
      "Ġpoze": 8564,
      "neze": 8565,
      "Ġajust": 8566,
      "mbursa": 8567,
      "ĠprezentatÄĥ": 8568,
      "Ġ88": 8569,
      "ĠdureazÄĥ": 8570,
      "Ġ98": 8571,
      "Ġcanadi": 8572,
      "spond": 8573,
      "Ġproteja": 8574,
      "Ġadministrarea": 8575,
      "Ġachita": 8576,
      "Ġlipsit": 8577,
      "Ġcastiga": 8578,
      "Ġfenomene": 8579,
      "Ġdigital": 8580,
      "Ġmodelele": 8581,
      "ĠmetodÄĥ": 8582,
      "Ġprocentuale": 8583,
      "ĠvorbeÈĻte": 8584,
      "Ġechivalentul": 8585,
      "Ġrapoarte": 8586,
      "Ġinsolven": 8587,
      "Pre": 8588,
      "Ġmort": 8589,
      "Ġret": 8590,
      "Ġautor": 8591,
      "anele": 8592,
      "inÄĥrii": 8593,
      "Ġcomunitatea": 8594,
      "ĠfinanÈĽÄĥ": 8595,
      "Ġpensiona": 8596,
      "ĠinvestiÈĽionale": 8597,
      "Ġrealizeze": 8598,
      "Ġaceeasi": 8599,
      "Ġcoree": 8600,
      "Ġlocuitori": 8601,
      "Ġfamilii": 8602,
      "Ġfotbalului": 8603,
      "Ġgenul": 8604,
      "ĠAntre": 8605,
      "Ġaducem": 8606,
      "Ġscuti": 8607,
      "ĠcomercialÄĥ": 8608,
      "ĠstructurÄĥ": 8609,
      "Ġturism": 8610,
      "Ġsesizarea": 8611,
      "Ġagresiv": 8612,
      "ĠpÄĥrÅ£i": 8613,
      "Ġindependente": 8614,
      "ĠperspectivÄĥ": 8615,
      "Ġeficiente": 8616,
      "ĠdispÄĥrut": 8617,
      "Ġrezolvarea": 8618,
      "ĠGulliver": 8619,
      "Ġreciproc": 8620,
      "Ġdizabil": 8621,
      "Ġsatisf": 8622,
      "aÈĽii": 8623,
      "deazÄĥ": 8624,
      "ff": 8625,
      "ĠsupÄĥ": 8626,
      "ĠdeÈĻe": 8627,
      "orarea": 8628,
      "Ġincep": 8629,
      "Ġdidact": 8630,
      "gaj": 8631,
      "Ġpremi": 8632,
      "Ġsuprafe": 8633,
      "marke": 8634,
      "Ġamericanca": 8635,
      "ĠangajaÈĽii": 8636,
      "Ġproprietarul": 8637,
      "ĠbÄĥrbatul": 8638,
      "ĠsuprafaÈĽa": 8639,
      "Ġradia": 8640,
      "ĠaÈĻteptat": 8641,
      "ĠÃ®ndrept": 8642,
      "Ġprotejate": 8643,
      "ĠparticipanÈĽii": 8644,
      "Ġpoporul": 8645,
      "ĠreÅ£elele": 8646,
      "ĠÈĻanse": 8647,
      "ĠglobalÄĥ": 8648,
      "Ġpalmare": 8649,
      "Ġprilej": 8650,
      "Ġredef": 8651,
      "Ġexploatare": 8652,
      "Ð¸": 8653,
      "Ġdon": 8654,
      "Ġpis": 8655,
      "Ġcuant": 8656,
      "ĠDa": 8657,
      "ĠDatele": 8658,
      "tÄĥÅ£i": 8659,
      "Ġcomuni": 8660,
      "ĠVoi": 8661,
      "Ġaprin": 8662,
      "Ġcreierul": 8663,
      "tivitatea": 8664,
      "Ġuit": 8665,
      "Ġincinta": 8666,
      "ĠAceÈĻtia": 8667,
      "ĠreprezentatÄĥ": 8668,
      "Ġgravita": 8669,
      "Ġafacerea": 8670,
      "Ġambi": 8671,
      "ĠformaÅ£iunii": 8672,
      "ĠintenÈĽioneazÄĥ": 8673,
      "Ġnegru": 8674,
      "ĠexperÈĽii": 8675,
      "ĠmodernÄĥ": 8676,
      "ĠjustiÈĽie": 8677,
      "Ġalocate": 8678,
      "ĠcÄĥlÄĥtorie": 8679,
      "Ġcircumstan": 8680,
      "ĠCota": 8681,
      "Ġdeficitul": 8682,
      "Ġrestaurante": 8683,
      "ĠpregÄĥteÅŁte": 8684,
      "restre": 8685,
      "Ġintampla": 8686,
      "ĠaceleaÅŁi": 8687,
      "17": 8688,
      "bia": 8689,
      "die": 8690,
      "Ġaia": 8691,
      "Ġincidente": 8692,
      "Ġreex": 8693,
      "stena": 8694,
      "ÈĽiunilor": 8695,
      "Ġgadge": 8696,
      "Ġimen": 8697,
      "Ġdesen": 8698,
      "oarelor": 8699,
      "Ġtransporta": 8700,
      "iderul": 8701,
      "Ġht": 8702,
      "Ġsecol": 8703,
      "Ġjudecat": 8704,
      "Ġnormative": 8705,
      "Ġcalculator": 8706,
      "Ġtaxele": 8707,
      "ĠadevÄĥratÄĥ": 8708,
      "Ġpunerea": 8709,
      "ĠprezenÅ£Äĥ": 8710,
      "ĠmaÅŁinile": 8711,
      "Ġcheltuit": 8712,
      "ĠÃ®ntreagÄĥ": 8713,
      "ĠprofesionalÄĥ": 8714,
      "Ġavertis": 8715,
      "Ġpermanente": 8716,
      "ĠpermanentÄĥ": 8717,
      "ĠÃ®ndre": 8718,
      "Ġcantitate": 8719,
      "ĠcÃ¢nte": 8720,
      "ĠdobÃ¢nzile": 8721,
      "Ġcorpului": 8722,
      "Ġdistinc": 8723,
      "ĠceilalÅ£i": 8724,
      "az": 8725,
      "cia": 8726,
      "cord": 8727,
      "Ġsil": 8728,
      "Ġfani": 8729,
      "arca": 8730,
      "umele": 8731,
      "derilor": 8732,
      "Ġcompute": 8733,
      "nescu": 8734,
      "ĠdezbÄĥ": 8735,
      "ĠpÄĥrea": 8736,
      "Ġlove": 8737,
      "ĠinformaÅ£iilor": 8738,
      "Ġplate": 8739,
      "Ġcorespond": 8740,
      "Ġsfarsit": 8741,
      "ĠaplicaÈĽii": 8742,
      "Ġtehnologiilor": 8743,
      "aje": 8744,
      "Ġoferte": 8745,
      "Ġclasamentului": 8746,
      "Ġorganizatorii": 8747,
      "ĠconstrucÅ£ia": 8748,
      "ĠcuvÃ¢ntul": 8749,
      "Ġtemperaturilor": 8750,
      "Ġstructuri": 8751,
      "ĠsemnificativÄĥ": 8752,
      "Ġevaluarea": 8753,
      "ĠgermanÄĥ": 8754,
      "Ġtext": 8755,
      "ĠcomparaÅ£ie": 8756,
      "ĠadÃ¢nc": 8757,
      "ĠpÄĥtraÅ£i": 8758,
      "Ġconsiderate": 8759,
      "Ġcomentarii": 8760,
      "ĠTemperaturile": 8761,
      "itcoin": 8762,
      "ide": 8763,
      "Ġone": 8764,
      "Ġdro": 8765,
      "Ġdotat": 8766,
      "lay": 8767,
      "icalÄĥ": 8768,
      "ĠcÄĥci": 8769,
      "Ġsacri": 8770,
      "astro": 8771,
      "alelor": 8772,
      "Ġdepist": 8773,
      "ĠdepunÄĥ": 8774,
      "ĠnaÅ£ionala": 8775,
      "Ġgenerale": 8776,
      "Ġpension": 8777,
      "ĠInforma": 8778,
      "Ġviitorului": 8779,
      "Ġdistanta": 8780,
      "Ġcrimin": 8781,
      "Ġfinalizat": 8782,
      "Ġ1999": 8783,
      "Ġdosarele": 8784,
      "Ġinsu": 8785,
      "ĠorganizaÅ£ii": 8786,
      "ĠAnterior": 8787,
      "Ġocazii": 8788,
      "Ġcosturilor": 8789,
      "ĠasistenÅ£Äĥ": 8790,
      "Ġcritici": 8791,
      "Ġfurnizate": 8792,
      "Ġdialogul": 8793,
      "Ġprevent": 8794,
      "ĠdimineaÅ£a": 8795,
      "Ġexercitarea": 8796,
      "Ġritmul": 8797,
      "Ġevacu": 8798,
      "Ġflux": 8799,
      "Ġcontractele": 8800,
      "ĠrezervÄĥ": 8801,
      "ĠrÄĥspÃ¢n": 8802,
      "bora": 8803,
      "gerul": 8804,
      "stre": 8805,
      "Ġinto": 8806,
      "Ġinfec": 8807,
      "omo": 8808,
      "Ġbom": 8809,
      "Ġnoct": 8810,
      "siunile": 8811,
      "Ġarhi": 8812,
      "ĠOrgan": 8813,
      "Ġtox": 8814,
      "ĠmÄĥrim": 8815,
      "Ġ190": 8816,
      "Ġincen": 8817,
      "Ġfedera": 8818,
      "ĠsecÅ£ii": 8819,
      "ĠinvestiÅ£iilor": 8820,
      "Ġsof": 8821,
      "abilÄĥ": 8822,
      "Ġsportiva": 8823,
      "Ġfondatorul": 8824,
      "Ġexemplare": 8825,
      "Ġgruparea": 8826,
      "Ġstudent": 8827,
      "Ġ1996": 8828,
      "ĠinvitaÈĽi": 8829,
      "Ġzonei": 8830,
      "Ġsesizare": 8831,
      "ĠParticip": 8832,
      "ĠprovocÄĥrile": 8833,
      "Ġgrani": 8834,
      "Ġfrig": 8835,
      "Ġsenzori": 8836,
      "Ġautovehicule": 8837,
      "Ġpresedintele": 8838,
      "ĠtatÄĥl": 8839,
      "ĠSistemul": 8840,
      "plu": 8841,
      "seascÄĥ": 8842,
      "Ġarii": 8843,
      "Ġdevenind": 8844,
      "lemen": 8845,
      "enÅ£ei": 8846,
      "Ġfai": 8847,
      "ĠcÄĥutÄĥ": 8848,
      "Ġseme": 8849,
      "Ġconsa": 8850,
      "Ġmotivele": 8851,
      "Ġdepistat": 8852,
      "aliza": 8853,
      "Ġdispari": 8854,
      "ĠurmÄĥtor": 8855,
      "ĠAceÅŁtia": 8856,
      "ĠasearÄĥ": 8857,
      "Ġexpus": 8858,
      "Ġtable": 8859,
      "Ġ180": 8860,
      "Ġcererii": 8861,
      "Ġcentre": 8862,
      "ĠscoatÄĥ": 8863,
      "Ġfilmului": 8864,
      "ĠadoptÄĥ": 8865,
      "ĠbunÄĥst": 8866,
      "Ġtermeni": 8867,
      "Ġaccesului": 8868,
      "ĠcompletÄĥ": 8869,
      "Ġrepetate": 8870,
      "Ġpromovat": 8871,
      "ĠasistenÈĽa": 8872,
      "Ġcursuri": 8873,
      "Ġcopilului": 8874,
      "Ġavantajul": 8875,
      "ĠextraordinarÄĥ": 8876,
      "ĠdificilÄĥ": 8877,
      "Ġtransnistrean": 8878,
      "Ġusor": 8879,
      "Ġelimina": 8880,
      "Ġprevenirea": 8881,
      "Ġperiod": 8882,
      "âĢľ,": 8883,
      "Ġlaptop": 8884,
      "Ġscumpe": 8885,
      "smul": 8886,
      "wit": 8887,
      "Ġdecon": 8888,
      "Ġmat": 8889,
      "unoi": 8890,
      "ÈĽatÄĥ": 8891,
      "Ġconcep": 8892,
      "Ġbre": 8893,
      "Ġlec": 8894,
      "Ġparc": 8895,
      "Ġcompat": 8896,
      "Ġlegume": 8897,
      "Ġdescri": 8898,
      "Ġceas": 8899,
      "ducerea": 8900,
      "ĠgenereazÄĥ": 8901,
      "ĠreprezentÃ¢nd": 8902,
      "Ġoras": 8903,
      "Ġchest": 8904,
      "Ġafirm": 8905,
      "ĠcercetÄĥrii": 8906,
      "ĠproducÈĽia": 8907,
      "ĠameninÈĽÄĥ": 8908,
      "ĠconstituÈĽionale": 8909,
      "ĠproducÄĥtorilor": 8910,
      "Ġsimple": 8911,
      "Ġbucurie": 8912,
      "Ġcurente": 8913,
      "Ġgazele": 8914,
      "ĠinstanÅ£Äĥ": 8915,
      "ĠeliminatÄĥ": 8916,
      "ĠdispoziÈĽie": 8917,
      "Ġstadiul": 8918,
      "Ġcresterea": 8919,
      "ĠiniÅ£iativÄĥ": 8920,
      "Ġvalabil": 8921,
[...]
